{
  "version": "1.0",
  "truncation": null,
  "padding": null,
  "added_tokens": [
    {
      "id": 0,
      "content": "[PAD]",
      "single_word": false,
      "lstrip": false,
      "rstrip": false,
      "normalized": false,
      "special": true
    },
    {
      "id": 1,
      "content": "[UNK]",
      "single_word": false,
      "lstrip": false,
      "rstrip": false,
      "normalized": false,
      "special": true
    },
    {
      "id": 2,
      "content": "[CLS]",
      "single_word": false,
      "lstrip": false,
      "rstrip": false,
      "normalized": false,
      "special": true
    },
    {
      "id": 3,
      "content": "[SEP]",
      "single_word": false,
      "lstrip": false,
      "rstrip": false,
      "normalized": false,
      "special": true
    },
    {
      "id": 4,
      "content": "[MASK]",
      "single_word": false,
      "lstrip": false,
      "rstrip": false,
      "normalized": false,
      "special": true
    }
  ],
  "normalizer": {
    "type": "Sequence",
    "normalizers": [
      {
        "type": "NFKC"
      },
      {
        "type": "BertNormalizer",
        "clean_text": true,
        "handle_chinese_chars": true,
        "strip_accents": null,
        "lowercase": false
      }
    ]
  },
  "pre_tokenizer": {
    "type": "Whitespace"
  },
  "post_processor": {
    "type": "TemplateProcessing",
    "single": [
      {
        "SpecialToken": {
          "id": "[CLS]",
          "type_id": 0
        }
      },
      {
        "Sequence": {
          "id": "A",
          "type_id": 0
        }
      },
      {
        "SpecialToken": {
          "id": "[SEP]",
          "type_id": 0
        }
      }
    ],
    "pair": [
      {
        "SpecialToken": {
          "id": "[CLS]",
          "type_id": 0
        }
      },
      {
        "Sequence": {
          "id": "A",
          "type_id": 0
        }
      },
      {
        "SpecialToken": {
          "id": "[SEP]",
          "type_id": 0
        }
      },
      {
        "Sequence": {
          "id": "B",
          "type_id": 0
        }
      },
      {
        "SpecialToken": {
          "id": "[SEP]",
          "type_id": 0
        }
      }
    ],
    "special_tokens": {
      "[CLS]": {
        "id": "[CLS]",
        "ids": [
          2
        ],
        "tokens": [
          "[CLS]"
        ]
      },
      "[SEP]": {
        "id": "[SEP]",
        "ids": [
          3
        ],
        "tokens": [
          "[SEP]"
        ]
      }
    }
  },
  "decoder": {
    "type": "BPEDecoder",
    "suffix": "</w>"
  },
  "model": {
    "type": "BPE",
    "dropout": null,
    "unk_token": "[UNK]",
    "continuing_subword_prefix": null,
    "end_of_word_suffix": "</w>",
    "fuse_unk": false,
    "byte_fallback": false,
    "ignore_merges": false,
    "vocab": {
      "[PAD]": 0,
      "[UNK]": 1,
      "[CLS]": 2,
      "[SEP]": 3,
      "[MASK]": 4,
      "!": 5,
      "\"": 6,
      "#": 7,
      "$": 8,
      "%": 9,
      "&": 10,
      "'": 11,
      "(": 12,
      ")": 13,
      "*": 14,
      "+": 15,
      ",": 16,
      "-": 17,
      ".": 18,
      "/": 19,
      "0": 20,
      "1": 21,
      "2": 22,
      "3": 23,
      "4": 24,
      "5": 25,
      "6": 26,
      "7": 27,
      "8": 28,
      "9": 29,
      ":": 30,
      ";": 31,
      "<": 32,
      "=": 33,
      ">": 34,
      "?": 35,
      "@": 36,
      "A": 37,
      "B": 38,
      "C": 39,
      "D": 40,
      "E": 41,
      "F": 42,
      "G": 43,
      "H": 44,
      "I": 45,
      "J": 46,
      "K": 47,
      "L": 48,
      "M": 49,
      "N": 50,
      "O": 51,
      "P": 52,
      "Q": 53,
      "R": 54,
      "S": 55,
      "T": 56,
      "U": 57,
      "V": 58,
      "W": 59,
      "X": 60,
      "Y": 61,
      "Z": 62,
      "[": 63,
      "\\": 64,
      "]": 65,
      "^": 66,
      "_": 67,
      "`": 68,
      "a": 69,
      "b": 70,
      "c": 71,
      "d": 72,
      "e": 73,
      "f": 74,
      "g": 75,
      "h": 76,
      "i": 77,
      "j": 78,
      "k": 79,
      "l": 80,
      "m": 81,
      "n": 82,
      "o": 83,
      "p": 84,
      "q": 85,
      "r": 86,
      "s": 87,
      "t": 88,
      "u": 89,
      "v": 90,
      "w": 91,
      "x": 92,
      "y": 93,
      "z": 94,
      "{": 95,
      "|": 96,
      "}": 97,
      "~": 98,
      "¡": 99,
      "¢": 100,
      "£": 101,
      "¥": 102,
      "§": 103,
      "©": 104,
      "«": 105,
      "¬": 106,
      "®": 107,
      "°": 108,
      "±": 109,
      "·": 110,
      "»": 111,
      "¿": 112,
      "À": 113,
      "Á": 114,
      "Ä": 115,
      "Å": 116,
      "Ç": 117,
      "É": 118,
      "Î": 119,
      "Ó": 120,
      "Ö": 121,
      "×": 122,
      "Ø": 123,
      "Ú": 124,
      "Ü": 125,
      "ß": 126,
      "à": 127,
      "á": 128,
      "â": 129,
      "ã": 130,
      "ä": 131,
      "å": 132,
      "æ": 133,
      "ç": 134,
      "è": 135,
      "é": 136,
      "ê": 137,
      "ë": 138,
      "ì": 139,
      "í": 140,
      "î": 141,
      "ï": 142,
      "ð": 143,
      "ñ": 144,
      "ò": 145,
      "ó": 146,
      "ô": 147,
      "õ": 148,
      "ö": 149,
      "÷": 150,
      "ø": 151,
      "ù": 152,
      "ú": 153,
      "û": 154,
      "ü": 155,
      "ý": 156,
      "þ": 157,
      "ÿ": 158,
      "Ā": 159,
      "ā": 160,
      "ă": 161,
      "ą": 162,
      "ć": 163,
      "Č": 164,
      "č": 165,
      "đ": 166,
      "ē": 167,
      "ĕ": 168,
      "ė": 169,
      "ę": 170,
      "ě": 171,
      "ğ": 172,
      "Ĥ": 173,
      "ħ": 174,
      "ĩ": 175,
      "ī": 176,
      "ĭ": 177,
      "İ": 178,
      "ı": 179,
      "ĵ": 180,
      "Ł": 181,
      "ł": 182,
      "ń": 183,
      "ŋ": 184,
      "Ō": 185,
      "ō": 186,
      "ŏ": 187,
      "ő": 188,
      "œ": 189,
      "ř": 190,
      "Ś": 191,
      "ś": 192,
      "Ş": 193,
      "ş": 194,
      "Š": 195,
      "š": 196,
      "ţ": 197,
      "ũ": 198,
      "ū": 199,
      "ů": 200,
      "ŷ": 201,
      "ź": 202,
      "ż": 203,
      "Ž": 204,
      "ž": 205,
      "ơ": 206,
      "ư": 207,
      "ǎ": 208,
      "ǐ": 209,
      "ǒ": 210,
      "ǔ": 211,
      "ș": 212,
      "ț": 213,
      "Ȳ": 214,
      "ȳ": 215,
      "ɑ": 216,
      "ɔ": 217,
      "ə": 218,
      "ɛ": 219,
      "ɡ": 220,
      "ɪ": 221,
      "ʃ": 222,
      "ʊ": 223,
      "ʹ": 224,
      "ʻ": 225,
      "ʿ": 226,
      "ˈ": 227,
      "ˉ": 228,
      "ː": 229,
      "̀": 230,
      "́": 231,
      "̂": 232,
      "̃": 233,
      "̄": 234,
      "̅": 235,
      "̇": 236,
      "Α": 237,
      "Γ": 238,
      "Δ": 239,
      "Ε": 240,
      "Θ": 241,
      "Κ": 242,
      "Λ": 243,
      "Ξ": 244,
      "Π": 245,
      "Σ": 246,
      "Τ": 247,
      "Φ": 248,
      "Χ": 249,
      "Ψ": 250,
      "Ω": 251,
      "ά": 252,
      "έ": 253,
      "ή": 254,
      "ί": 255,
      "α": 256,
      "β": 257,
      "γ": 258,
      "δ": 259,
      "ε": 260,
      "ζ": 261,
      "η": 262,
      "θ": 263,
      "ι": 264,
      "κ": 265,
      "λ": 266,
      "μ": 267,
      "ν": 268,
      "ξ": 269,
      "ο": 270,
      "π": 271,
      "ρ": 272,
      "ς": 273,
      "σ": 274,
      "τ": 275,
      "υ": 276,
      "φ": 277,
      "χ": 278,
      "ψ": 279,
      "ω": 280,
      "ό": 281,
      "ύ": 282,
      "ώ": 283,
      "А": 284,
      "Б": 285,
      "В": 286,
      "Г": 287,
      "Д": 288,
      "З": 289,
      "И": 290,
      "К": 291,
      "М": 292,
      "Н": 293,
      "О": 294,
      "П": 295,
      "Р": 296,
      "С": 297,
      "Т": 298,
      "У": 299,
      "Ч": 300,
      "Я": 301,
      "а": 302,
      "б": 303,
      "в": 304,
      "г": 305,
      "д": 306,
      "е": 307,
      "ж": 308,
      "з": 309,
      "и": 310,
      "й": 311,
      "к": 312,
      "л": 313,
      "м": 314,
      "н": 315,
      "о": 316,
      "п": 317,
      "р": 318,
      "с": 319,
      "т": 320,
      "у": 321,
      "ф": 322,
      "х": 323,
      "ц": 324,
      "ч": 325,
      "ш": 326,
      "щ": 327,
      "ъ": 328,
      "ы": 329,
      "ь": 330,
      "э": 331,
      "ю": 332,
      "я": 333,
      "ё": 334,
      "і": 335,
      "қ": 336,
      "ң": 337,
      "ա": 338,
      "դ": 339,
      "ե": 340,
      "ի": 341,
      "լ": 342,
      "կ": 343,
      "մ": 344,
      "ն": 345,
      "ո": 346,
      "ս": 347,
      "վ": 348,
      "տ": 349,
      "ր": 350,
      "ց": 351,
      "ւ": 352,
      "ք": 353,
      "ְ": 354,
      "ִ": 355,
      "ֵ": 356,
      "ֶ": 357,
      "ַ": 358,
      "ָ": 359,
      "ֹ": 360,
      "ּ": 361,
      "־": 362,
      "ׁ": 363,
      "א": 364,
      "ב": 365,
      "ג": 366,
      "ד": 367,
      "ה": 368,
      "ו": 369,
      "ז": 370,
      "ח": 371,
      "ט": 372,
      "י": 373,
      "ך": 374,
      "כ": 375,
      "ל": 376,
      "ם": 377,
      "מ": 378,
      "ן": 379,
      "נ": 380,
      "ס": 381,
      "ע": 382,
      "פ": 383,
      "צ": 384,
      "ק": 385,
      "ר": 386,
      "ש": 387,
      "ת": 388,
      "،": 389,
      "؟": 390,
      "ء": 391,
      "آ": 392,
      "أ": 393,
      "إ": 394,
      "ئ": 395,
      "ا": 396,
      "ب": 397,
      "ة": 398,
      "ت": 399,
      "ث": 400,
      "ج": 401,
      "ح": 402,
      "خ": 403,
      "د": 404,
      "ذ": 405,
      "ر": 406,
      "ز": 407,
      "س": 408,
      "ش": 409,
      "ص": 410,
      "ض": 411,
      "ط": 412,
      "ع": 413,
      "غ": 414,
      "ف": 415,
      "ق": 416,
      "ك": 417,
      "ل": 418,
      "م": 419,
      "ن": 420,
      "ه": 421,
      "و": 422,
      "ى": 423,
      "ي": 424,
      "ً": 425,
      "ٌ": 426,
      "َ": 427,
      "ُ": 428,
      "ِ": 429,
      "ّ": 430,
      "ْ": 431,
      "پ": 432,
      "چ": 433,
      "ک": 434,
      "گ": 435,
      "ں": 436,
      "ھ": 437,
      "ہ": 438,
      "ی": 439,
      "ے": 440,
      "ं": 441,
      "अ": 442,
      "आ": 443,
      "ए": 444,
      "क": 445,
      "ख": 446,
      "ग": 447,
      "च": 448,
      "ज": 449,
      "ट": 450,
      "त": 451,
      "द": 452,
      "न": 453,
      "प": 454,
      "ब": 455,
      "भ": 456,
      "म": 457,
      "य": 458,
      "र": 459,
      "ल": 460,
      "व": 461,
      "श": 462,
      "स": 463,
      "ह": 464,
      "़": 465,
      "ा": 466,
      "ि": 467,
      "ी": 468,
      "ु": 469,
      "ू": 470,
      "े": 471,
      "ै": 472,
      "ो": 473,
      "्": 474,
      "।": 475,
      "ক": 476,
      "ত": 477,
      "ন": 478,
      "য": 479,
      "র": 480,
      "ল": 481,
      "স": 482,
      "া": 483,
      "ি": 484,
      "ে": 485,
      "্": 486,
      "ਰ": 487,
      "ਾ": 488,
      "ત": 489,
      "ન": 490,
      "ર": 491,
      "ા": 492,
      "ે": 493,
      "્": 494,
      "க": 495,
      "ட": 496,
      "த": 497,
      "ந": 498,
      "ன": 499,
      "ப": 500,
      "ம": 501,
      "ர": 502,
      "ற": 503,
      "ல": 504,
      "ள": 505,
      "வ": 506,
      "ா": 507,
      "ி": 508,
      "ு": 509,
      "ை": 510,
      "்": 511,
      "ం": 512,
      "ి": 513,
      "్": 514,
      "്": 515,
      "า": 516,
      "າ": 517,
      "་": 518,
      "།": 519,
      "ག": 520,
      "ད": 521,
      "མ": 522,
      "ར": 523,
      "ས": 524,
      "ི": 525,
      "ོ": 526,
      "ም": 527,
      "ር": 528,
      "ስ": 529,
      "ት": 530,
      "ነ": 531,
      "ን": 532,
      "ከ": 533,
      "ይ": 534,
      "Ꭴ": 535,
      "ក": 536,
      "ង": 537,
      "ដ": 538,
      "ត": 539,
      "ទ": 540,
      "ន": 541,
      "ប": 542,
      "ព": 543,
      "ម": 544,
      "យ": 545,
      "រ": 546,
      "ល": 547,
      "ស": 548,
      "ា": 549,
      "ិ": 550,
      "ី": 551,
      "ុ": 552,
      "ើ": 553,
      "េ": 554,
      "ែ": 555,
      "ំ": 556,
      "្": 557,
      "ḥ": 558,
      "ṃ": 559,
      "ṅ": 560,
      "ṇ": 561,
      "ṣ": 562,
      "ṭ": 563,
      "ẋ": 564,
      "ạ": 565,
      "ả": 566,
      "ế": 567,
      "ệ": 568,
      "ị": 569,
      "ọ": 570,
      "ố": 571,
      "ộ": 572,
      "ớ": 573,
      "ờ": 574,
      "ở": 575,
      "ἀ": 576,
      "ἄ": 577,
      "ἐ": 578,
      "ἔ": 579,
      "ἰ": 580,
      "ὁ": 581,
      "ὐ": 582,
      "ὰ": 583,
      "ὴ": 584,
      "ὶ": 585,
      "ὸ": 586,
      "ῆ": 587,
      "ῖ": 588,
      "ῦ": 589,
      "ῶ": 590,
      "‐": 591,
      "–": 592,
      "—": 593,
      "‖": 594,
      "‘": 595,
      "’": 596,
      "“": 597,
      "”": 598,
      "„": 599,
      "†": 600,
      "•": 601,
      "′": 602,
      "⁄": 603,
      "€": 604,
      "₹": 605,
      "⃑": 606,
      "⃗": 607,
      "⃣": 608,
      "←": 609,
      "↑": 610,
      "→": 611,
      "↓": 612,
      "↔": 613,
      "↦": 614,
      "⇌": 615,
      "⇒": 616,
      "⇔": 617,
      "∀": 618,
      "∂": 619,
      "∃": 620,
      "∅": 621,
      "∆": 622,
      "∇": 623,
      "∈": 624,
      "∉": 625,
      "∎": 626,
      "∏": 627,
      "∑": 628,
      "−": 629,
      "∓": 630,
      "∖": 631,
      "∗": 632,
      "∘": 633,
      "√": 634,
      "∛": 635,
      "∝": 636,
      "∞": 637,
      "∠": 638,
      "∣": 639,
      "∥": 640,
      "∧": 641,
      "∨": 642,
      "∩": 643,
      "∪": 644,
      "∫": 645,
      "∮": 646,
      "∴": 647,
      "∼": 648,
      "≃": 649,
      "≅": 650,
      "≈": 651,
      "≠": 652,
      "≡": 653,
      "≤": 654,
      "≥": 655,
      "≺": 656,
      "≽": 657,
      "⊂": 658,
      "⊆": 659,
      "⊇": 660,
      "⊕": 661,
      "⊗": 662,
      "⊙": 663,
      "⊤": 664,
      "⊥": 665,
      "⊨": 666,
      "⋂": 667,
      "⋃": 668,
      "⋅": 669,
      "⋮": 670,
      "⋯": 671,
      "⌃": 672,
      "⌈": 673,
      "⌉": 674,
      "⌊": 675,
      "⌋": 676,
      "⎡": 677,
      "⎢": 678,
      "⎣": 679,
      "⎤": 680,
      "⎥": 681,
      "⎦": 682,
      "⎧": 683,
      "⎨": 684,
      "⎩": 685,
      "⏟": 686,
      "─": 687,
      "━": 688,
      "│": 689,
      "┃": 690,
      "└": 691,
      "├": 692,
      "┼": 693,
      "═": 694,
      "□": 695,
      "△": 696,
      "◇": 697,
      "☀": 698,
      "★": 699,
      "☉": 700,
      "♀": 701,
      "♂": 702,
      "♠": 703,
      "♣": 704,
      "♥": 705,
      "♦": 706,
      "♭": 707,
      "⚖": 708,
      "⚙": 709,
      "⚡": 710,
      "✅": 711,
      "✍": 712,
      "✏": 713,
      "✨": 714,
      "❓": 715,
      "❤": 716,
      "➡": 717,
      "⟨": 718,
      "⟩": 719,
      "⟹": 720,
      "⪯": 721,
      "⭐": 722,
      "、": 723,
      "。": 724,
      "〈": 725,
      "〉": 726,
      "「": 727,
      "」": 728,
      "あ": 729,
      "い": 730,
      "う": 731,
      "え": 732,
      "お": 733,
      "か": 734,
      "が": 735,
      "き": 736,
      "く": 737,
      "け": 738,
      "こ": 739,
      "ご": 740,
      "さ": 741,
      "し": 742,
      "す": 743,
      "せ": 744,
      "そ": 745,
      "た": 746,
      "だ": 747,
      "ち": 748,
      "っ": 749,
      "つ": 750,
      "て": 751,
      "で": 752,
      "と": 753,
      "ど": 754,
      "な": 755,
      "に": 756,
      "の": 757,
      "は": 758,
      "べ": 759,
      "ま": 760,
      "み": 761,
      "め": 762,
      "も": 763,
      "よ": 764,
      "ら": 765,
      "り": 766,
      "る": 767,
      "れ": 768,
      "わ": 769,
      "を": 770,
      "ん": 771,
      "ア": 772,
      "イ": 773,
      "カ": 774,
      "ク": 775,
      "ス": 776,
      "ト": 777,
      "ラ": 778,
      "リ": 779,
      "ル": 780,
      "ン": 781,
      "ー": 782,
      "一": 783,
      "三": 784,
      "上": 785,
      "下": 786,
      "不": 787,
      "个": 788,
      "中": 789,
      "为": 790,
      "么": 791,
      "之": 792,
      "也": 793,
      "书": 794,
      "了": 795,
      "事": 796,
      "五": 797,
      "人": 798,
      "什": 799,
      "今": 800,
      "他": 801,
      "代": 802,
      "以": 803,
      "们": 804,
      "会": 805,
      "何": 806,
      "作": 807,
      "你": 808,
      "個": 809,
      "先": 810,
      "公": 811,
      "其": 812,
      "出": 813,
      "分": 814,
      "到": 815,
      "前": 816,
      "化": 817,
      "十": 818,
      "午": 819,
      "去": 820,
      "友": 821,
      "可": 822,
      "吃": 823,
      "同": 824,
      "名": 825,
      "吗": 826,
      "和": 827,
      "喜": 828,
      "四": 829,
      "国": 830,
      "在": 831,
      "地": 832,
      "多": 833,
      "大": 834,
      "天": 835,
      "女": 836,
      "她": 837,
      "好": 838,
      "如": 839,
      "子": 840,
      "学": 841,
      "家": 842,
      "对": 843,
      "小": 844,
      "就": 845,
      "山": 846,
      "常": 847,
      "年": 848,
      "影": 849,
      "彼": 850,
      "很": 851,
      "得": 852,
      "心": 853,
      "思": 854,
      "您": 855,
      "想": 856,
      "意": 857,
      "感": 858,
      "成": 859,
      "我": 860,
      "打": 861,
      "文": 862,
      "新": 863,
      "方": 864,
      "日": 865,
      "早": 866,
      "时": 867,
      "明": 868,
      "是": 869,
      "時": 870,
      "書": 871,
      "最": 872,
      "月": 873,
      "有": 874,
      "本": 875,
      "来": 876,
      "果": 877,
      "欢": 878,
      "水": 879,
      "法": 880,
      "点": 881,
      "為": 882,
      "無": 883,
      "然": 884,
      "物": 885,
      "王": 886,
      "球": 887,
      "理": 888,
      "生": 889,
      "用": 890,
      "电": 891,
      "画": 892,
      "的": 893,
      "看": 894,
      "私": 895,
      "經": 896,
      "经": 897,
      "美": 898,
      "老": 899,
      "者": 900,
      "而": 901,
      "能": 902,
      "自": 903,
      "花": 904,
      "行": 905,
      "要": 906,
      "見": 907,
      "語": 908,
      "语": 909,
      "请": 910,
      "谢": 911,
      "起": 912,
      "过": 913,
      "这": 914,
      "通": 915,
      "道": 916,
      "那": 917,
      "里": 918,
      "问": 919,
      "非": 920,
      "面": 921,
      "食": 922,
      "高": 923,
      "가": 924,
      "고": 925,
      "기": 926,
      "는": 927,
      "니": 928,
      "다": 929,
      "를": 930,
      "사": 931,
      "서": 932,
      "세": 933,
      "시": 934,
      "아": 935,
      "안": 936,
      "어": 937,
      "에": 938,
      "요": 939,
      "을": 940,
      "이": 941,
      "있": 942,
      "지": 943,
      "하": 944,
      "해": 945,
      "️": 946,
      "🌈": 947,
      "🌊": 948,
      "🌍": 949,
      "🌎": 950,
      "🌞": 951,
      "🌟": 952,
      "🌠": 953,
      "🌱": 954,
      "🌳": 955,
      "🌿": 956,
      "🍋": 957,
      "🍎": 958,
      "🍕": 959,
      "🍦": 960,
      "🍪": 961,
      "🎈": 962,
      "🎉": 963,
      "🎨": 964,
      "🎯": 965,
      "🎲": 966,
      "🎶": 967,
      "👀": 968,
      "👉": 969,
      "👍": 970,
      "💕": 971,
      "💖": 972,
      "💡": 973,
      "💪": 974,
      "💭": 975,
      "💰": 976,
      "💻": 977,
      "📈": 978,
      "📍": 979,
      "📚": 980,
      "📝": 981,
      "🔍": 982,
      "🔎": 983,
      "🔥": 984,
      "🔬": 985,
      "🔵": 986,
      "🕵": 987,
      "🗣": 988,
      "😃": 989,
      "😄": 990,
      "😉": 991,
      "😊": 992,
      "😎": 993,
      "😔": 994,
      "😲": 995,
      "🙌": 996,
      "🚀": 997,
      "🤓": 998,
      "🤔": 999,
      "🤝": 1000,
      "🤩": 1001,
      "🦸": 1002,
      "🧠": 1003,
      "🧪": 1004,
      ")</w>": 1005,
      "C</w>": 1006,
      "E</w>": 1007,
      "v</w>": 1008,
      "d</w>": 1009,
      "a</w>": 1010,
      "n</w>": 1011,
      "9</w>": 1012,
      "m</w>": 1013,
      "t</w>": 1014,
      "*</w>": 1015,
      "2</w>": 1016,
      "e</w>": 1017,
      "s</w>": 1018,
      "0</w>": 1019,
      "D</w>": 1020,
      "w</w>": 1021,
      "f</w>": 1022,
      "ь</w>": 1023,
      "L</w>": 1024,
      "i</w>": 1025,
      "g</w>": 1026,
      "H</w>": 1027,
      "Z</w>": 1028,
      "B</w>": 1029,
      "R</w>": 1030,
      "y</w>": 1031,
      "h</w>": 1032,
      "á</w>": 1033,
      "o</w>": 1034,
      "r</w>": 1035,
      "\\</w>": 1036,
      "й</w>": 1037,
      "é</w>": 1038,
      "F</w>": 1039,
      "1</w>": 1040,
      "T</w>": 1041,
      "M</w>": 1042,
      "3</w>": 1043,
      ":</w>": 1044,
      "Y</w>": 1045,
      "💡</w>": 1046,
      "b</w>": 1047,
      "k</w>": 1048,
      "5</w>": 1049,
      "x</w>": 1050,
      "I</w>": 1051,
      "7</w>": 1052,
      "ō</w>": 1053,
      "6</w>": 1054,
      "8</w>": 1055,
      "A</w>": 1056,
      "S</w>": 1057,
      "я</w>": 1058,
      "l</w>": 1059,
      "|</w>": 1060,
      "#</w>": 1061,
      "ó</w>": 1062,
      "ٌ</w>": 1063,
      "></w>": 1064,
      "4</w>": 1065,
      "√</w>": 1066,
      "p</w>": 1067,
      "$</w>": 1068,
      "]</w>": 1069,
      "ı</w>": 1070,
      "O</w>": 1071,
      "c</w>": 1072,
      "⊇</w>": 1073,
      "═</w>": 1074,
      "_</w>": 1075,
      "í</w>": 1076,
      "ی</w>": 1077,
      "-</w>": 1078,
      ";</w>": 1079,
      "P</w>": 1080,
      "ラ</w>": 1081,
      "{</w>": 1082,
      ".</w>": 1083,
      "⟨</w>": 1084,
      "м</w>": 1085,
      "N</w>": 1086,
      "θ</w>": 1087,
      "ü</w>": 1088,
      "V</w>": 1089,
      "у</w>": 1090,
      ",</w>": 1091,
      "u</w>": 1092,
      "ì</w>": 1093,
      "K</w>": 1094,
      "и</w>": 1095,
      "ी</w>": 1096,
      "(</w>": 1097,
      "—</w>": 1098,
      "ν</w>": 1099,
      "G</w>": 1100,
      "`</w>": 1101,
      "+</w>": 1102,
      "z</w>": 1103,
      "ς</w>": 1104,
      "=</w>": 1105,
      "[</w>": 1106,
      "ā</w>": 1107,
      "q</w>": 1108,
      "·</w>": 1109,
      "Q</w>": 1110,
      "ē</w>": 1111,
      "ὶ</w>": 1112,
      "}</w>": 1113,
      "ă</w>": 1114,
      "'</w>": 1115,
      "Ú</w>": 1116,
      "ا</w>": 1117,
      "ह</w>": 1118,
      "j</w>": 1119,
      "@</w>": 1120,
      "W</w>": 1121,
      "φ</w>": 1122,
      "य</w>": 1123,
      "!</w>": 1124,
      "è</w>": 1125,
      "а</w>": 1126,
      "ɪ</w>": 1127,
      "ī</w>": 1128,
      "∑</w>": 1129,
      "ң</w>": 1130,
      "∫</w>": 1131,
      "に</w>": 1132,
      "U</w>": 1133,
      "&</w>": 1134,
      "X</w>": 1135,
      "ُ</w>": 1136,
      "ت</w>": 1137,
      "\"</w>": 1138,
      "⃗</w>": 1139,
      "J</w>": 1140,
      "£</w>": 1141,
      "%</w>": 1142,
      "λ</w>": 1143,
      "ò</w>": 1144,
      "н</w>": 1145,
      "ד</w>": 1146,
      "ट</w>": 1147,
      "≠</w>": 1148,
      "ے</w>": 1149,
      "ِ</w>": 1150,
      "َ</w>": 1151,
      "?</w>": 1152,
      "ś</w>": 1153,
      "ω</w>": 1154,
      "ǔ</w>": 1155,
      "ʿ</w>": 1156,
      "ר</w>": 1157,
      "‘</w>": 1158,
      "ù</w>": 1159,
      "α</w>": 1160,
      "ה</w>": 1161,
      "σ</w>": 1162,
      "−</w>": 1163,
      "π</w>": 1164,
      "ن</w>": 1165,
      "à</w>": 1166,
      "ី</w>": 1167,
      "∂</w>": 1168,
      "х</w>": 1169,
      "ነ</w>": 1170,
      "Λ</w>": 1171,
      "î</w>": 1172,
      "ä</w>": 1173,
      "ι</w>": 1174,
      "る</w>": 1175,
      "μ</w>": 1176,
      "ơ</w>": 1177,
      "⊨</w>": 1178,
      "^</w>": 1179,
      "م</w>": 1180,
      "ン</w>": 1181,
      "ு</w>": 1182,
      "к</w>": 1183,
      "ة</w>": 1184,
      "~</w>": 1185,
      "ְ</w>": 1186,
      "о</w>": 1187,
      "이</w>": 1188,
      "ب</w>": 1189,
      "を</w>": 1190,
      "ּ</w>": 1191,
      "е</w>": 1192,
      "â</w>": 1193,
      "∩</w>": 1194,
      "를</w>": 1195,
      "∣</w>": 1196,
      "🌍</w>": 1197,
      "<</w>": 1198,
      "غ</w>": 1199,
      "ை</w>": 1200,
      "்</w>": 1201,
      "ε</w>": 1202,
      "🔥</w>": 1203,
      "지</w>": 1204,
      "г</w>": 1205,
      "β</w>": 1206,
      "ո</w>": 1207,
      "/</w>": 1208,
      "ي</w>": 1209,
      "ք</w>": 1210,
      "∅</w>": 1211,
      "ç</w>": 1212,
      "ہ</w>": 1213,
      "ى</w>": 1214,
      "ם</w>": 1215,
      "±</w>": 1216,
      "ه</w>": 1217,
      "⚙</w>": 1218,
      "で</w>": 1219,
      "ん</w>": 1220,
      "∗</w>": 1221,
      "χ</w>": 1222,
      "ὴ</w>": 1223,
      "요</w>": 1224,
      "ы</w>": 1225,
      "⌋</w>": 1226,
      "”</w>": 1227,
      "ो</w>": 1228,
      "≥</w>": 1229,
      "🤔</w>": 1230,
      "∞</w>": 1231,
      "þ</w>": 1232,
      "ן</w>": 1233,
      "ş</w>": 1234,
      "ʃ</w>": 1235,
      "き</w>": 1236,
      "ל</w>": 1237,
      "з</w>": 1238,
      "と</w>": 1239,
      "ὰ</w>": 1240,
      "ح</w>": 1241,
      "♀</w>": 1242,
      "в</w>": 1243,
      "न</w>": 1244,
      "く</w>": 1245,
      "ô</w>": 1246,
      "ा</w>": 1247,
      "ο</w>": 1248,
      "́</w>": 1249,
      "п</w>": 1250,
      "р</w>": 1251,
      "⊗</w>": 1252,
      "ّ</w>": 1253,
      "ć</w>": 1254,
      "د</w>": 1255,
      "✨</w>": 1256,
      "ǐ</w>": 1257,
      "ে</w>": 1258,
      "त</w>": 1259,
      "ő</w>": 1260,
      "ę</w>": 1261,
      "の</w>": 1262,
      "ή</w>": 1263,
      "̄</w>": 1264,
      "प</w>": 1265,
      "❓</w>": 1266,
      "∀</w>": 1267,
      "ό</w>": 1268,
      "ř</w>": 1269,
      "æ</w>": 1270,
      "ָ</w>": 1271,
      "ũ</w>": 1272,
      "∇</w>": 1273,
      "↔</w>": 1274,
      "ý</w>": 1275,
      "⋅</w>": 1276,
      "⟩</w>": 1277,
      "ě</w>": 1278,
      "去</w>": 1279,
      "∆</w>": 1280,
      "Ω</w>": 1281,
      "–</w>": 1282,
      "ב</w>": 1283,
      "💰</w>": 1284,
      "រ</w>": 1285,
      "🔎</w>": 1286,
      "É</w>": 1287,
      "ʊ</w>": 1288,
      "無</w>": 1289,
      "×</w>": 1290,
      "̇</w>": 1291,
      "∪</w>": 1292,
      "ọ</w>": 1293,
      "¬</w>": 1294,
      "ु</w>": 1295,
      "δ</w>": 1296,
      "ñ</w>": 1297,
      "り</w>": 1298,
      "语</w>": 1299,
      "ו</w>": 1300,
      "ū</w>": 1301,
      "қ</w>": 1302,
      "ά</w>": 1303,
      "ག</w>": 1304,
      "ת</w>": 1305,
      "ú</w>": 1306,
      "し</w>": 1307,
      "∥</w>": 1308,
      "ע</w>": 1309,
      "ி</w>": 1310,
      "ḥ</w>": 1311,
      "す</w>": 1312,
      "ས</w>": 1313,
      "Γ</w>": 1314,
      "ం</w>": 1315,
      "τ</w>": 1316,
      "⌊</w>": 1317,
      "т</w>": 1318,
      "ر</w>": 1319,
      "ĭ</w>": 1320,
      "्</w>": 1321,
      "Á</w>": 1322,
      "•</w>": 1323,
      "ク</w>": 1324,
      "¥</w>": 1325,
      "с</w>": 1326,
      "א</w>": 1327,
      "ւ</w>": 1328,
      "么</w>": 1329,
      "📚</w>": 1330,
      "έ</w>": 1331,
      "क</w>": 1332,
      "ю</w>": 1333,
      "な</w>": 1334,
      "∠</w>": 1335,
      "💪</w>": 1336,
      "い</w>": 1337,
      "§</w>": 1338,
      "⇒</w>": 1339,
      "⊥</w>": 1340,
      "ं</w>": 1341,
      "が</w>": 1342,
      "י</w>": 1343,
      "γ</w>": 1344,
      "ń</w>": 1345,
      "─</w>": 1346,
      "ે</w>": 1347,
      "을</w>": 1348,
      "č</w>": 1349,
      "°</w>": 1350,
      "च</w>": 1351,
      "사</w>": 1352,
      "ル</w>": 1353,
      "」</w>": 1354,
      "│</w>": 1355,
      "л</w>": 1356,
      "า</w>": 1357,
      "서</w>": 1358,
      "는</w>": 1359,
      "Τ</w>": 1360,
      "🚀</w>": 1361,
      "≈</w>": 1362,
      "∉</w>": 1363,
      "̅</w>": 1364,
      "시</w>": 1365,
      "υ</w>": 1366,
      "த</w>": 1367,
      "∮</w>": 1368,
      "다</w>": 1369,
      "가</w>": 1370,
      "↦</w>": 1371,
      "ξ</w>": 1372,
      "П</w>": 1373,
      "व</w>": 1374,
      "ṇ</w>": 1375,
      "š</w>": 1376,
      "て</w>": 1377,
      "기</w>": 1378,
      "Δ</w>": 1379,
      "र</w>": 1380,
      "ト</w>": 1381,
      "’</w>": 1382,
      "고</w>": 1383,
      "ŋ</w>": 1384,
      "ل</w>": 1385,
      "ṅ</w>": 1386,
      "つ</w>": 1387,
      "Φ</w>": 1388,
      "≃</w>": 1389,
      "ζ</w>": 1390,
      "ት</w>": 1391,
      "た</w>": 1392,
      "̃</w>": 1393,
      "🎉</w>": 1394,
      "→</w>": 1395,
      "े</w>": 1396,
      "🍋</w>": 1397,
      "해</w>": 1398,
      "া</w>": 1399,
      "🔬</w>": 1400,
      "Т</w>": 1401,
      "ρ</w>": 1402,
      "⎧</w>": 1403,
      "ल</w>": 1404,
      "ǒ</w>": 1405,
      "ল</w>": 1406,
      "η</w>": 1407,
      "💕</w>": 1408,
      "д</w>": 1409,
      "か</w>": 1410,
      "ך</w>": 1411,
      "ར</w>": 1412,
      "ö</w>": 1413,
      "ː</w>": 1414,
      "ា</w>": 1415,
      "め</w>": 1416,
      "द</w>": 1417,
      "ï</w>": 1418,
      "ら</w>": 1419,
      "う</w>": 1420,
      "ĵ</w>": 1421,
      "ὐ</w>": 1422,
      "〈</w>": 1423,
      "Р</w>": 1424,
      "ਰ</w>": 1425,
      "❤</w>": 1426,
      "،</w>": 1427,
      "⊆</w>": 1428,
      "ን</w>": 1429,
      "ί</w>": 1430,
      "∃</w>": 1431,
      "ད</w>": 1432,
      "ג</w>": 1433,
      "ր</w>": 1434,
      "에</w>": 1435,
      "κ</w>": 1436,
      "ն</w>": 1437,
      "մ</w>": 1438,
      "ą</w>": 1439,
      "ق</w>": 1440,
      "ύ</w>": 1441,
      "©</w>": 1442,
      "К</w>": 1443,
      "ł</w>": 1444,
      "ψ</w>": 1445,
      "ῶ</w>": 1446,
      "ف</w>": 1447,
      "谢</w>": 1448,
      "ក</w>": 1449,
      "ố</w>": 1450,
      "ए</w>": 1451,
      "Ψ</w>": 1452,
      "ི</w>": 1453,
      "ء</w>": 1454,
      "🌞</w>": 1455,
      "ー</w>": 1456,
      "∎</w>": 1457,
      "➡</w>": 1458,
      "ŷ</w>": 1459,
      "⎡</w>": 1460,
      "ਾ</w>": 1461,
      "ÿ</w>": 1462,
      "េ</w>": 1463,
      "‖</w>": 1464,
      "ß</w>": 1465,
      "🌟</w>": 1466,
      "👀</w>": 1467,
      "ھ</w>": 1468,
      "↓</w>": 1469,
      "😃</w>": 1470,
      "ض</w>": 1471,
      "ስ</w>": 1472,
      "♥</w>": 1473,
      "〉</w>": 1474,
      "ž</w>": 1475,
      "خ</w>": 1476,
      "∖</w>": 1477,
      "ẋ</w>": 1478,
      "어</w>": 1479,
      "‐</w>": 1480,
      "Σ</w>": 1481,
      "כ</w>": 1482,
      "🍦</w>": 1483,
      "⌈</w>": 1484,
      "ز</w>": 1485,
      "്</w>": 1486,
      "б</w>": 1487,
      "ῦ</w>": 1488,
      "ع</w>": 1489,
      "ս</w>": 1490,
      "स</w>": 1491,
      "ė</w>": 1492,
      "ً</w>": 1493,
      "ス</w>": 1494,
      "ס</w>": 1495,
      "⊂</w>": 1496,
      "ល</w>": 1497,
      "如</w>": 1498,
      "┃</w>": 1499,
      "ǎ</w>": 1500,
      "ộ</w>": 1501,
      "ż</w>": 1502,
      "😎</w>": 1503,
      "س</w>": 1504,
      "կ</w>": 1505,
      "您</w>": 1506,
      "≽</w>": 1507,
      "ង</w>": 1508,
      "ə</w>": 1509,
      "∘</w>": 1510,
      "🧠</w>": 1511,
      "很</w>": 1512,
      "≡</w>": 1513,
      "⚡</w>": 1514,
      "ર</w>": 1515,
      "و</w>": 1516,
      "ْ</w>": 1517,
      "і</w>": 1518,
      "↑</w>": 1519,
      "ṭ</w>": 1520,
      "♂</w>": 1521,
      "ê</w>": 1522,
      "̂</w>": 1523,
      "پ</w>": 1524,
      "ч</w>": 1525,
      "ħ</w>": 1526,
      "⏟</w>": 1527,
      "お</w>": 1528,
      "ց</w>": 1529,
      "យ</w>": 1530,
      "å</w>": 1531,
      "श</w>": 1532,
      "آ</w>": 1533,
      "だ</w>": 1534,
      "Ч</w>": 1535,
      "よ</w>": 1536,
      "ṃ</w>": 1537,
      "ک</w>": 1538,
      "️</w>": 1539,
      "△</w>": 1540,
      "∏</w>": 1541,
      "ប</w>": 1542,
      "ም</w>": 1543,
      "😲</w>": 1544,
      "€</w>": 1545,
      "ख</w>": 1546,
      "会</w>": 1547,
      "ַ</w>": 1548,
      "¡</w>": 1549,
      "“</w>": 1550,
      "ں</w>": 1551,
      "想</w>": 1552,
      "ð</w>": 1553,
      "ë</w>": 1554,
      "ի</w>": 1555,
      "🤓</w>": 1556,
      "公</w>": 1557,
      "ம</w>": 1558,
      "ĩ</w>": 1559,
      "ث</w>": 1560,
      "র</w>": 1561,
      "ك</w>": 1562,
      "😊</w>": 1563,
      "⋃</w>": 1564,
      "ů</w>": 1565,
      "え</w>": 1566,
      "✍</w>": 1567,
      "ח</w>": 1568,
      "ɡ</w>": 1569,
      "⎣</w>": 1570,
      "ម</w>": 1571,
      "≅</w>": 1572,
      "∓</w>": 1573,
      "🌈</w>": 1574,
      "ि</w>": 1575,
      "≤</w>": 1576,
      "म</w>": 1577,
      "⁄</w>": 1578,
      "མ</w>": 1579,
      "க</w>": 1580,
      "′</w>": 1581,
      "れ</w>": 1582,
      "أ</w>": 1583,
      "ș</w>": 1584,
      "♣</w>": 1585,
      "ĕ</w>": 1586,
      "は</w>": 1587,
      "⊙</w>": 1588,
      "ి</w>": 1589,
      "ص</w>": 1590,
      "щ</w>": 1591,
      "û</w>": 1592,
      "®</w>": 1593,
      "ˈ</w>": 1594,
      "ị</w>": 1595,
      "💖</w>": 1596,
      "ʹ</w>": 1597,
      "电</w>": 1598,
      "∧</w>": 1599,
      "💻</w>": 1600,
      "ш</w>": 1601,
      "ῆ</w>": 1602,
      "վ</w>": 1603,
      "ţ</w>": 1604,
      "گ</w>": 1605,
      "∈</w>": 1606,
      "ដ</w>": 1607,
      "ё</w>": 1608,
      "ж</w>": 1609,
      "ט</w>": 1610,
      "🔵</w>": 1611,
      "ὸ</w>": 1612,
      "カ</w>": 1613,
      "ả</w>": 1614,
      "ե</w>": 1615,
      "ã</w>": 1616,
      "果</w>": 1617,
      "⌉</w>": 1618,
      "ط</w>": 1619,
      "ይ</w>": 1620,
      "起</w>": 1621,
      "ъ</w>": 1622,
      "わ</w>": 1623,
      "̀</w>": 1624,
      "能</w>": 1625,
      "🤩</w>": 1626,
      "☀</w>": 1627,
      "Ȳ</w>": 1628,
      "べ</w>": 1629,
      "ር</w>": 1630,
      "À</w>": 1631,
      "ા</w>": 1632,
      "ព</w>": 1633,
      "լ</w>": 1634,
      "ج</w>": 1635,
      "າ</w>": 1636,
      "ន</w>": 1637,
      "◇</w>": 1638,
      "ब</w>": 1639,
      "⋮</w>": 1640,
      "├</w>": 1641,
      "ご</w>": 1642,
      "А</w>": 1643,
      "⋯</w>": 1644,
      "も</w>": 1645,
      "ק</w>": 1646,
      "书</w>": 1647,
      "भ</w>": 1648,
      "ש</w>": 1649,
      "ц</w>": 1650,
      "স</w>": 1651,
      "ŏ</w>": 1652,
      "†</w>": 1653,
      "안</w>": 1654,
      "⊕</w>": 1655,
      "ش</w>": 1656,
      "ি</w>": 1657,
      "ğ</w>": 1658,
      "»</w>": 1659,
      "多</w>": 1660,
      "っ</w>": 1661,
      "ন</w>": 1662,
      "⭐</w>": 1663,
      "ø</w>": 1664,
      "ア</w>": 1665,
      "🎨</w>": 1666,
      "子</w>": 1667,
      "ま</w>": 1668,
      "せ</w>": 1669,
      "イ</w>": 1670,
      "☉</w>": 1671,
      "្</w>": 1672,
      "🕵</w>": 1673,
      "生</w>": 1674,
      "影</w>": 1675,
      "⎦</w>": 1676,
      "们</w>": 1677,
      "✏</w>": 1678,
      "Ü</w>": 1679,
      "Ø</w>": 1680,
      "自</w>": 1681,
      "⎤</w>": 1682,
      "ै</w>": 1683,
      "ち</w>": 1684,
      "ど</w>": 1685,
      "Ā</w>": 1686,
      "ώ</w>": 1687,
      "С</w>": 1688,
      "年</w>": 1689,
      "👍</w>": 1690,
      "📝</w>": 1691,
      "Ó</w>": 1692,
      "🌎</w>": 1693,
      "∛</w>": 1694,
      "美</w>": 1695,
      "⊤</w>": 1696,
      "あ</w>": 1697,
      "け</w>": 1698,
      "🌳</w>": 1699,
      "Г</w>": 1700,
      "道</w>": 1701,
      "ז</w>": 1702,
      "Ş</w>": 1703,
      "⇔</w>": 1704,
      "非</w>": 1705,
      "⃣</w>": 1706,
      "⎥</w>": 1707,
      "🗣</w>": 1708,
      "ত</w>": 1709,
      "Θ</w>": 1710,
      "∼</w>": 1711,
      "⎢</w>": 1712,
      "ன</w>": 1713,
      "니</w>": 1714,
      "🌱</w>": 1715,
      "Š</w>": 1716,
      "ক</w>": 1717,
      "🔍</w>": 1718,
      "∨</w>": 1719,
      "⟹</w>": 1720,
      "ׁ</w>": 1721,
      "先</w>": 1722,
      "和</w>": 1723,
      "🎲</w>": 1724,
      "「</w>": 1725,
      "ா</w>": 1726,
      "通</w>": 1727,
      "ở</w>": 1728,
      "⚖</w>": 1729,
      "ế</w>": 1730,
      "こ</w>": 1731,
      "中</w>": 1732,
      "🧪</w>": 1733,
      "∴</w>": 1734,
      "ɛ</w>": 1735,
      "¿</w>": 1736,
      "Ε</w>": 1737,
      "⇌</w>": 1738,
      "有</w>": 1739,
      "Å</w>": 1740,
      "小</w>": 1741,
      "🌠</w>": 1742,
      "⃑</w>": 1743,
      "面</w>": 1744,
      "经</w>": 1745,
      "就</w>": 1746,
      "ɑ</w>": 1747,
      "ф</w>": 1748,
      "ա</w>": 1749,
      "Ä</w>": 1750,
      "🎶</w>": 1751,
      "、</w>": 1752,
      "女</w>": 1753,
      "세</w>": 1754,
      "ź</w>": 1755,
      "。</w>": 1756,
      "ῖ</w>": 1757,
      "欢</w>": 1758,
      "♭</w>": 1759,
      "🎈</w>": 1760,
      "個</w>": 1761,
      "⋂</w>": 1762,
      "新</w>": 1763,
      "་</w>": 1764,
      "🤝</w>": 1765,
      "ត</w>": 1766,
      "📍</w>": 1767,
      "書</w>": 1768,
      "ំ</w>": 1769,
      "✅</w>": 1770,
      "代</w>": 1771,
      "ન</w>": 1772,
      "ர</w>": 1773,
      "⎩</w>": 1774,
      "Н</w>": 1775,
      "🎯</w>": 1776,
      "♦</w>": 1777,
      "ந</w>": 1778,
      "四</w>": 1779,
      "ʻ</w>": 1780,
      "़</w>": 1781,
      "있</w>": 1782,
      "տ</w>": 1783,
      "⪯</w>": 1784,
      "这</w>": 1785,
      "さ</w>": 1786,
      "ἰ</w>": 1787,
      "ֹ</w>": 1788,
      "←</w>": 1789,
      "₹</w>": 1790,
      "«</w>": 1791,
      "😔</w>": 1792,
      "ப</w>": 1793,
      "Α</w>": 1794,
      "🍕</w>": 1795,
      "Ĥ</w>": 1796,
      "🌿</w>": 1797,
      "÷</w>": 1798,
      "过</w>": 1799,
      "מ</w>": 1800,
      "ិ</w>": 1801,
      "ू</w>": 1802,
      "Ξ</w>": 1803,
      "思</w>": 1804,
      "个</w>": 1805,
      "Ç</w>": 1806,
      "đ</w>": 1807,
      "者</w>": 1808,
      "📈</w>": 1809,
      "В</w>": 1810,
      "ើ</w>": 1811,
      "ț</w>": 1812,
      "😉</w>": 1813,
      "💭</w>": 1814,
      "≺</w>": 1815,
      "ɔ</w>": 1816,
      "դ</w>": 1817,
      "Î</w>": 1818,
      "ட</w>": 1819,
      "人</w>": 1820,
      "Π</w>": 1821,
      "学</w>": 1822,
      "ṣ</w>": 1823,
      "🌊</w>": 1824,
      "М</w>": 1825,
      "可</w>": 1826,
      "О</w>": 1827,
      "õ</w>": 1828,
      "„</w>": 1829,
      "Ž</w>": 1830,
      "□</w>": 1831,
      "ờ</w>": 1832,
      "э</w>": 1833,
      "意</w>": 1834,
      "出</w>": 1835,
      "།</w>": 1836,
      "ȳ</w>": 1837,
      "み</w>": 1838,
      "到</w>": 1839,
      "什</w>": 1840,
      "私</w>": 1841,
      "வ</w>": 1842,
      "아</w>": 1843,
      "ज</w>": 1844,
      "山</w>": 1845,
      "十</w>": 1846,
      "花</w>": 1847,
      "ग</w>": 1848,
      "∝</w>": 1849,
      "🍪</w>": 1850,
      "語</w>": 1851,
      "Ꭴ</w>": 1852,
      "😄</w>": 1853,
      "前</w>": 1854,
      "他</w>": 1855,
      "ែ</w>": 1856,
      "♠</w>": 1857,
      "आ</w>": 1858,
      "对</w>": 1859,
      "چ</w>": 1860,
      "🙌</w>": 1861,
      "Ö</w>": 1862,
      "য</w>": 1863,
      "Я</w>": 1864,
      "看</w>": 1865,
      "時</w>": 1866,
      "్</w>": 1867,
      "理</w>": 1868,
      "以</w>": 1869,
      "ư</w>": 1870,
      "ớ</w>": 1871,
      "ள</w>": 1872,
      "三</w>": 1873,
      "ạ</w>": 1874,
      "的</w>": 1875,
      "她</w>": 1876,
      "⌃</w>": 1877,
      "球</w>": 1878,
      "食</w>": 1879,
      "也</w>": 1880,
      "ˉ</w>": 1881,
      "İ</w>": 1882,
      "作</w>": 1883,
      "画</w>": 1884,
      "ὁ</w>": 1885,
      "ከ</w>": 1886,
      "最</w>": 1887,
      "¢</w>": 1888,
      "在</w>": 1889,
      "।</w>": 1890,
      "Д</w>": 1891,
      "하</w>": 1892,
      "行</w>": 1893,
      "点</w>": 1894,
      "У</w>": 1895,
      "⎨</w>": 1896,
      "└</w>": 1897,
      "请</w>": 1898,
      "你</w>": 1899,
      "午</w>": 1900,
      "צ</w>": 1901,
      "用</w>": 1902,
      "高</w>": 1903,
      "家</w>": 1904,
      "感</w>": 1905,
      "👉</w>": 1906,
      "見</w>": 1907,
      "然</w>": 1908,
      "★</w>": 1909,
      "问</w>": 1910,
      "化</w>": 1911,
      "明</w>": 1912,
      "З</w>": 1913,
      "上</w>": 1914,
      "而</w>": 1915,
      "अ</w>": 1916,
      "早</w>": 1917,
      "œ</w>": 1918,
      "ệ</w>": 1919,
      "Χ</w>": 1920,
      "્</w>": 1921,
      "王</w>": 1922,
      "Б</w>": 1923,
      "ོ</w>": 1924,
      "פ</w>": 1925,
      "И</w>": 1926,
      "那</w>": 1927,
      "物</w>": 1928,
      "נ</w>": 1929,
      "天</w>": 1930,
      "成</w>": 1931,
      "我</w>": 1932,
      "时</w>": 1933,
      "リ</w>": 1934,
      "要</w>": 1935,
      "ற</w>": 1936,
      "喜</w>": 1937,
      "今</w>": 1938,
      "好</w>": 1939,
      "法</w>": 1940,
      "一</w>": 1941,
      "为</w>": 1942,
      "文</w>": 1943,
      "方</w>": 1944,
      "何</w>": 1945,
      "地</w>": 1946,
      "吗</w>": 1947,
      "其</w>": 1948,
      "名</w>": 1949,
      "里</w>": 1950,
      "經</w>": 1951,
      "🍎</w>": 1952,
      "月</w>": 1953,
      "ទ</w>": 1954,
      "彼</w>": 1955,
      "分</w>": 1956,
      "ἀ</w>": 1957,
      "国</w>": 1958,
      "打</w>": 1959,
      "ុ</w>": 1960,
      "大</w>": 1961,
      "Κ</w>": 1962,
      "Ō</w>": 1963,
      "ல</w>": 1964,
      "本</w>": 1965,
      "来</w>": 1966,
      "ذ</w>": 1967,
      "水</w>": 1968,
      "ئ</w>": 1969,
      "Č</w>": 1970,
      "為</w>": 1971,
      "下</w>": 1972,
      "Ł</w>": 1973,
      "不</w>": 1974,
      "吃</w>": 1975,
      "ત</w>": 1976,
      "同</w>": 1977,
      "是</w>": 1978,
      "得</w>": 1979,
      "老</w>": 1980,
      "־</w>": 1981,
      "そ</w>": 1982,
      "之</w>": 1983,
      "了</w>": 1984,
      "友</w>": 1985,
      "事</w>": 1986,
      "日</w>": 1987,
      "五</w>": 1988,
      "┼</w>": 1989,
      "心</w>": 1990,
      "؟</w>": 1991,
      "常</w>": 1992,
      "in": 1993,
      "th": 1994,
      "ti": 1995,
      "an": 1996,
      "ing</w>": 1997,
      "re": 1998,
      "en": 1999,
      "er": 2000,
      "on": 2001,
      "es</w>": 2002,
      "ou": 2003,
      "ar": 2004,
      "or": 2005,
      "and</w>": 2006,
      "the</w>": 2007,
      "on</w>": 2008,
      "st": 2009,
      "al": 2010,
      "at": 2011,
      "ed</w>": 2012,
      "it": 2013,
      "er</w>": 2014,
      "to</w>": 2015,
      "ro": 2016,
      "al</w>": 2017,
      "ac": 2018,
      "si": 2019,
      "ati": 2020,
      "of</w>": 2021,
      "ec": 2022,
      "el": 2023,
      "es": 2024,
      "om": 2025,
      "ic": 2026,
      "or</w>": 2027,
      "--": 2028,
      "di": 2029,
      "il": 2030,
      "in</w>": 2031,
      "pl": 2032,
      "ur": 2033,
      "ts</w>": 2034,
      "ol": 2035,
      "em": 2036,
      "ly</w>": 2037,
      "con": 2038,
      "as": 2039,
      "pro": 2040,
      "ex": 2041,
      "ons</w>": 2042,
      "ri": 2043,
      "un": 2044,
      "ve</w>": 2045,
      "ab": 2046,
      "is</w>": 2047,
      "ation</w>": 2048,
      "at</w>": 2049,
      "en</w>": 2050,
      "su": 2051,
      "li": 2052,
      "ce</w>": 2053,
      "an</w>": 2054,
      "wh": 2055,
      "ev": 2056,
      "com": 2057,
      "am": 2058,
      "ent</w>": 2059,
      "id": 2060,
      "ap": 2061,
      "the": 2062,
      "le</w>": 2063,
      "ag": 2064,
      "et": 2065,
      "ow": 2066,
      "ch": 2067,
      "ul": 2068,
      "qu": 2069,
      "res": 2070,
      "us": 2071,
      "ad": 2072,
      "le": 2073,
      "our</w>": 2074,
      "as</w>": 2075,
      "ers</w>": 2076,
      "tion</w>": 2077,
      "ity</w>": 2078,
      "----": 2079,
      "for</w>": 2080,
      "Th": 2081,
      "for": 2082,
      "sh": 2083,
      "gh": 2084,
      "im": 2085,
      "ci": 2086,
      "tr": 2087,
      "os": 2088,
      "per": 2089,
      "ate</w>": 2090,
      "ith</w>": 2091,
      "is": 2092,
      "ma": 2093,
      "op": 2094,
      "int": 2095,
      "with</w>": 2096,
      "ov": 2097,
      "de": 2098,
      "ot": 2099,
      "ding</w>": 2100,
      "ds</w>": 2101,
      "that</w>": 2102,
      "ff": 2103,
      "ent": 2104,
      "oun": 2105,
      "uc": 2106,
      "sp": 2107,
      "it</w>": 2108,
      "lo": 2109,
      "ou</w>": 2110,
      "your</w>": 2111,
      "str": 2112,
      "ents</w>": 2113,
      "vi": 2114,
      "tions</w>": 2115,
      "ther</w>": 2116,
      "ations</w>": 2117,
      "cl": 2118,
      "you</w>": 2119,
      "ne": 2120,
      "ir</w>": 2121,
      "ure</w>": 2122,
      "out</w>": 2123,
      "ess</w>": 2124,
      "se": 2125,
      "be": 2126,
      "enti": 2127,
      "ere</w>": 2128,
      "ut": 2129,
      "gr": 2130,
      "ow</w>": 2131,
      "ren": 2132,
      "by</w>": 2133,
      "ke</w>": 2134,
      "ar</w>": 2135,
      "um": 2136,
      "ally</w>": 2137,
      "wor": 2138,
      "tic": 2139,
      "der": 2140,
      "are</w>": 2141,
      "ir": 2142,
      "me": 2143,
      "ess": 2144,
      "iz": 2145,
      "ese</w>": 2146,
      "te": 2147,
      "tim": 2148,
      "ance</w>": 2149,
      "ing": 2150,
      "their</w>": 2151,
      "ting</w>": 2152,
      "ies</w>": 2153,
      "ine</w>": 2154,
      "our": 2155,
      "por": 2156,
      "able</w>": 2157,
      "ay</w>": 2158,
      "sc": 2159,
      "this</w>": 2160,
      "pre": 2161,
      "onal</w>": 2162,
      "ra": 2163,
      "red</w>": 2164,
      "ha": 2165,
      "og": 2166,
      "we</w>": 2167,
      "can</w>": 2168,
      "ating</w>": 2169,
      "king</w>": 2170,
      "cont": 2171,
      "rom</w>": 2172,
      "par": 2173,
      "--------": 2174,
      "ch</w>": 2175,
      "et</w>": 2176,
      "ght</w>": 2177,
      "gh</w>": 2178,
      "ties</w>": 2179,
      "all": 2180,
      "form": 2181,
      "ous</w>": 2182,
      "ver": 2183,
      "from</w>": 2184,
      "vid": 2185,
      "if": 2186,
      "sion</w>": 2187,
      "pres": 2188,
      "ang": 2189,
      "all</w>": 2190,
      "its</w>": 2191,
      "duc": 2192,
      "cre": 2193,
      "oo": 2194,
      "we": 2195,
      "ay": 2196,
      "ces</w>": 2197,
      "hi": 2198,
      "se</w>": 2199,
      "rou": 2200,
      "he": 2201,
      "ore</w>": 2202,
      "ter": 2203,
      "ld</w>": 2204,
      "ence</w>": 2205,
      "**</w>": 2206,
      "bu": 2207,
      "ta": 2208,
      "one</w>": 2209,
      "ps</w>": 2210,
      "age</w>": 2211,
      "oc": 2212,
      "ely</w>": 2213,
      "these</w>": 2214,
      "ic</w>": 2215,
      "ated</w>": 2216,
      "po": 2217,
      "res</w>": 2218,
      "us</w>": 2219,
      "tive</w>": 2220,
      "ment</w>": 2221,
      "ter</w>": 2222,
      "ves</w>": 2223,
      "into</w>": 2224,
      "comp": 2225,
      "fin": 2226,
      "rec": 2227,
      "als</w>": 2228,
      "stan": 2229,
      "fac": 2230,
      "fe": 2231,
      "they</w>": 2232,
      "clu": 2233,
      "comm": 2234,
      "sig": 2235,
      "ue</w>": 2236,
      "ain": 2237,
      "ile</w>": 2238,
      "eng": 2239,
      "be</w>": 2240,
      "ple</w>": 2241,
      "th</w>": 2242,
      "der</w>": 2243,
      "ste": 2244,
      "ors</w>": 2245,
      "ith": 2246,
      "ving</w>": 2247,
      "ear": 2248,
      "od": 2249,
      "ks</w>": 2250,
      "ant</w>": 2251,
      "uring</w>": 2252,
      "ari": 2253,
      "ary</w>": 2254,
      "ey</w>": 2255,
      "fl": 2256,
      "In": 2257,
      "min": 2258,
      "rac": 2259,
      "ep": 2260,
      "ical</w>": 2261,
      "tu": 2262,
      "sel": 2263,
      "bet": 2264,
      "som": 2265,
      "man": 2266,
      "ong</w>": 2267,
      "under": 2268,
      "fu": 2269,
      "eg": 2270,
      "throu": 2271,
      "so": 2272,
      "ad</w>": 2273,
      "ever": 2274,
      "ach</w>": 2275,
      "st</w>": 2276,
      "ose</w>": 2277,
      "rel": 2278,
      "acc": 2279,
      "ect</w>": 2280,
      "about</w>": 2281,
      "ted</w>": 2282,
      "inter": 2283,
      "ility</w>": 2284,
      "ings</w>": 2285,
      "ould</w>": 2286,
      "av": 2287,
      "val": 2288,
      "other</w>": 2289,
      "ill</w>": 2290,
      "with": 2291,
      "This</w>": 2292,
      "oll": 2293,
      "Con": 2294,
      "over": 2295,
      "like</w>": 2296,
      "ust</w>": 2297,
      "sign": 2298,
      "so</w>": 2299,
      "Ste": 2300,
      "ser": 2301,
      "ig": 2302,
      "inv": 2303,
      "spec": 2304,
      "ound</w>": 2305,
      "ph": 2306,
      "more</w>": 2307,
      "Step</w>": 2308,
      "ech": 2309,
      "ities</w>": 2310,
      "ying</w>": 2311,
      "ement</w>": 2312,
      "de</w>": 2313,
      "when</w>": 2314,
      "ed": 2315,
      "how</w>": 2316,
      "tiv": 2317,
      "equ": 2318,
      "ning</w>": 2319,
      "mo": 2320,
      "own</w>": 2321,
      "sts</w>": 2322,
      "reg": 2323,
      "ates</w>": 2324,
      "enc": 2325,
      "ative</w>": 2326,
      "ot</w>": 2327,
      "ential</w>": 2328,
      "time</w>": 2329,
      "kn": 2330,
      "emb": 2331,
      "ever</w>": 2332,
      "such</w>": 2333,
      "The</w>": 2334,
      "Wh": 2335,
      "ful</w>": 2336,
      "ill": 2337,
      "sy": 2338,
      "expl": 2339,
      "consi": 2340,
      ").</w>": 2341,
      "will</w>": 2342,
      "evel": 2343,
      "over</w>": 2344,
      "pe": 2345,
      "ich</w>": 2346,
      "ru": 2347,
      "ween</w>": 2348,
      "cial</w>": 2349,
      "vari": 2350,
      "pri": 2351,
      "between</w>": 2352,
      "port": 2353,
      "diff": 2354,
      "to": 2355,
      "provid": 2356,
      "mar": 2357,
      "sol": 2358,
      "les</w>": 2359,
      "ob": 2360,
      "oth</w>": 2361,
      "ens": 2362,
      "while</w>": 2363,
      "compl": 2364,
      "them</w>": 2365,
      "olog": 2366,
      "pec": 2367,
      "cul": 2368,
      "exper": 2369,
      "hel": 2370,
      "through</w>": 2371,
      "pos": 2372,
      "using</w>": 2373,
      "nec": 2374,
      "disc": 2375,
      "have</w>": 2376,
      "uid": 2377,
      "sec": 2378,
      "By</w>": 2379,
      "tw": 2380,
      "tly</w>": 2381,
      "shi": 2382,
      "ight</w>": 2383,
      "==": 2384,
      "fun": 2385,
      "co": 2386,
      "echn": 2387,
      "pa": 2388,
      "ific": 2389,
      "lear": 2390,
      "inclu": 2391,
      "ite</w>": 2392,
      "eff": 2393,
      "In</w>": 2394,
      "ge</w>": 2395,
      "iqu": 2396,
      "ten": 2397,
      "ca": 2398,
      "ays</w>": 2399,
      "requ": 2400,
      "proc": 2401,
      "mat": 2402,
      "up</w>": 2403,
      "num": 2404,
      "gen": 2405,
      "rent</w>": 2406,
      "est</w>": 2407,
      "dec": 2408,
      "ase</w>": 2409,
      "tran": 2410,
      "est": 2411,
      "loc": 2412,
      "el</w>": 2413,
      "tic</w>": 2414,
      "which</w>": 2415,
      "id</w>": 2416,
      "stor": 2417,
      "af": 2418,
      "cor": 2419,
      "bec": 2420,
      "anc": 2421,
      "where</w>": 2422,
      "up": 2423,
      "ud": 2424,
      "ble</w>": 2425,
      "ain</w>": 2426,
      "within</w>": 2427,
      "pon": 2428,
      "standing</w>": 2429,
      "ard</w>": 2430,
      "ef": 2431,
      "diffe": 2432,
      "tur": 2433,
      "techn": 2434,
      "any</w>": 2435,
      "tional</w>": 2436,
      "conc": 2437,
      "ability</w>": 2438,
      "off": 2439,
      "ering</w>": 2440,
      "sions</w>": 2441,
      "dis": 2442,
      "ack</w>": 2443,
      "ines</w>": 2444,
      "----------------": 2445,
      "sim": 2446,
      "end": 2447,
      "divid": 2448,
      "fore</w>": 2449,
      "do": 2450,
      "Ch": 2451,
      "commun": 2452,
      "both</w>": 2453,
      "exam": 2454,
      "An": 2455,
      "sing</w>": 2456,
      "ach": 2457,
      "tical</w>": 2458,
      "ased</w>": 2459,
      "ail": 2460,
      "appro": 2461,
      "struc": 2462,
      "Ex": 2463,
      "act</w>": 2464,
      "ial</w>": 2465,
      "appl": 2466,
      "self</w>": 2467,
      "),</w>": 2468,
      "but</w>": 2469,
      "ty</w>": 2470,
      "ame</w>": 2471,
      "ality</w>": 2472,
      "ments</w>": 2473,
      "row": 2474,
      "ice</w>": 2475,
      "ans</w>": 2476,
      "br": 2477,
      "during</w>": 2478,
      "inte": 2479,
      "Un": 2480,
      "fi": 2481,
      "chang": 2482,
      "sive</w>": 2483,
      "On": 2484,
      "ell": 2485,
      "ems</w>": 2486,
      "ether</w>": 2487,
      "each</w>": 2488,
      "adv": 2489,
      "pol": 2490,
      "yp": 2491,
      "if</w>": 2492,
      "gi": 2493,
      "what</w>": 2494,
      "ication</w>": 2495,
      "au": 2496,
      "ved</w>": 2497,
      "sk": 2498,
      "thing</w>": 2499,
      "ards</w>": 2500,
      "there</w>": 2501,
      "ateg": 2502,
      "valu": 2503,
      "has</w>": 2504,
      "ut</w>": 2505,
      "tion": 2506,
      "sul": 2507,
      "fo": 2508,
      "sur": 2509,
      "pow": 2510,
      "ghts</w>": 2511,
      "As</w>": 2512,
      "cur": 2513,
      "sub": 2514,
      "sti": 2515,
      "##": 2516,
      "ms</w>": 2517,
      "low</w>": 2518,
      "and": 2519,
      "experi": 2520,
      "of": 2521,
      "devel": 2522,
      "det": 2523,
      "ures</w>": 2524,
      "ements</w>": 2525,
      "ust": 2526,
      "func": 2527,
      "prac": 2528,
      "ace</w>": 2529,
      "some": 2530,
      "cri": 2531,
      "numb": 2532,
      "bl": 2533,
      "produc": 2534,
      "To</w>": 2535,
      "owing</w>": 2536,
      "ns</w>": 2537,
      "alleng": 2538,
      "aly": 2539,
      "ost</w>": 2540,
      "pot": 2541,
      "owever</w>": 2542,
      "iti": 2543,
      "posi": 2544,
      "not</w>": 2545,
      "let</w>": 2546,
      "aliz": 2547,
      "various</w>": 2548,
      "than</w>": 2549,
      "go": 2550,
      "two</w>": 2551,
      "invol": 2552,
      "fir": 2553,
      "some</w>": 2554,
      "ext</w>": 2555,
      "ke": 2556,
      "ind": 2557,
      "ture</w>": 2558,
      "dividu": 2559,
      "also</w>": 2560,
      "ome</w>": 2561,
      "work</w>": 2562,
      "ational</w>": 2563,
      "pr": 2564,
      "may</w>": 2565,
      "20": 2566,
      "her</w>": 2567,
      "ular</w>": 2568,
      "respon": 2569,
      "individu": 2570,
      "ful": 2571,
      "Key</w>": 2572,
      "arg": 2573,
      "tri": 2574,
      "ici": 2575,
      "challeng": 2576,
      "app": 2577,
      "use</w>": 2578,
      "ater</w>": 2579,
      "ros": 2580,
      "ron": 2581,
      "Ad": 2582,
      "out": 2583,
      "ell</w>": 2584,
      "who</w>": 2585,
      "soci": 2586,
      "sup": 2587,
      "way</w>": 2588,
      "ices</w>": 2589,
      "erg": 2590,
      "was</w>": 2591,
      "ast</w>": 2592,
      "cc": 2593,
      "It</w>": 2594,
      "ently</w>": 2595,
      "del": 2596,
      "end</w>": 2597,
      "pers": 2598,
      "even</w>": 2599,
      "line</w>": 2600,
      "his</w>": 2601,
      "ows</w>": 2602,
      "signific": 2603,
      "bo": 2604,
      "mul": 2605,
      "incre": 2606,
      "prom": 2607,
      "ree</w>": 2608,
      "heal": 2609,
      "understanding</w>": 2610,
      "fri": 2611,
      "ep</w>": 2612,
      "sm": 2613,
      "ory</w>": 2614,
      "new</w>": 2615,
      "tors</w>": 2616,
      "stud": 2617,
      "dat": 2618,
      "repres": 2619,
      "ast": 2620,
      "ten</w>": 2621,
      "ood</w>": 2622,
      "ics</w>": 2623,
      "sum": 2624,
      "develop": 2625,
      "These</w>": 2626,
      "ways</w>": 2627,
      "dem": 2628,
      "but": 2629,
      "he</w>": 2630,
      "Pro": 2631,
      "ses</w>": 2632,
      "tow": 2633,
      "ages</w>": 2634,
      "ental</w>": 2635,
      "coll": 2636,
      "could</w>": 2637,
      "ences</w>": 2638,
      "dist": 2639,
      "those</w>": 2640,
      "side</w>": 2641,
      "ross</w>": 2642,
      "art</w>": 2643,
      "poin": 2644,
      "ll</w>": 2645,
      "Com": 2646,
      "jec": 2647,
      "inform": 2648,
      "are": 2649,
      "prof": 2650,
      "However</w>": 2651,
      "exc": 2652,
      "ship</w>": 2653,
      "mon": 2654,
      "thou": 2655,
      "ze</w>": 2656,
      "am</w>": 2657,
      "cap": 2658,
      "gan": 2659,
      "them": 2660,
      "my</w>": 2661,
      "col": 2662,
      "vers": 2663,
      "world</w>": 2664,
      "ately</w>": 2665,
      "ling</w>": 2666,
      "re</w>": 2667,
      "loo": 2668,
      "resul": 2669,
      "iting</w>": 2670,
      "jo": 2671,
      "tra": 2672,
      "different</w>": 2673,
      "St": 2674,
      "might</w>": 2675,
      "ress</w>": 2676,
      "potential</w>": 2677,
      "based</w>": 2678,
      "ation": 2679,
      "effec": 2680,
      "just</w>": 2681,
      "uidel": 2682,
      "maint": 2683,
      "form</w>": 2684,
      "aging</w>": 2685,
      "help</w>": 2686,
      "En": 2687,
      "strateg": 2688,
      "ked</w>": 2689,
      "multi": 2690,
      "identi": 2691,
      "before</w>": 2692,
      "ness</w>": 2693,
      "foc": 2694,
      "ins</w>": 2695,
      "ection</w>": 2696,
      "analy": 2697,
      "sis</w>": 2698,
      "contin": 2699,
      "around</w>": 2700,
      "ore": 2701,
      ".,</w>": 2702,
      "um</w>": 2703,
      "ember</w>": 2704,
      "sible</w>": 2705,
      "aining</w>": 2706,
      "ique</w>": 2707,
      "typ": 2708,
      "connec": 2709,
      "bi": 2710,
      "import": 2711,
      "serv": 2712,
      "ade</w>": 2713,
      "buil": 2714,
      "ature</w>": 2715,
      "ications</w>": 2716,
      "trans": 2717,
      "ples</w>": 2718,
      "For</w>": 2719,
      "cal</w>": 2720,
      "Im": 2721,
      "succ": 2722,
      "due</w>": 2723,
      "gre": 2724,
      "lim": 2725,
      "ther": 2726,
      "organ": 2727,
      "ge": 2728,
      "lif": 2729,
      "ound": 2730,
      "foll": 2731,
      "ize</w>": 2732,
      "requi": 2733,
      "arly</w>": 2734,
      "lead": 2735,
      "ond</w>": 2736,
      "ining</w>": 2737,
      "fra": 2738,
      "data</w>": 2739,
      "dep": 2740,
      "ology</w>": 2741,
      "Now</w>": 2742,
      "back</w>": 2743,
      "impro": 2744,
      "vie": 2745,
      "tice</w>": 2746,
      "making</w>": 2747,
      "ub": 2748,
      "char": 2749,
      "ogether</w>": 2750,
      "====": 2751,
      "Al": 2752,
      "oring</w>": 2753,
      "grow": 2754,
      "cho": 2755,
      "ist": 2756,
      "gener": 2757,
      "rema": 2758,
      "times</w>": 2759,
      "tics</w>": 2760,
      "esses</w>": 2761,
      "els</w>": 2762,
      "eri": 2763,
      "ong": 2764,
      "ily</w>": 2765,
      "ass": 2766,
      "stand</w>": 2767,
      "hol": 2768,
      "resear": 2769,
      "ry</w>": 2770,
      "Ti": 2771,
      "ned</w>": 2772,
      "ft</w>": 2773,
      "ency</w>": 2774,
      "used</w>": 2775,
      "ources</w>": 2776,
      "contri": 2777,
      "bre": 2778,
      "make</w>": 2779,
      "rem": 2780,
      "process</w>": 2781,
      "coun": 2782,
      "pi": 2783,
      "cer": 2784,
      "then</w>": 2785,
      "essential</w>": 2786,
      "sequ": 2787,
      "ghout</w>": 2788,
      "come</w>": 2789,
      "clusion</w>": 2790,
      "tro": 2791,
      "less</w>": 2792,
      "high": 2793,
      "ases</w>": 2794,
      "add": 2795,
      "inn": 2796,
      "right</w>": 2797,
      "first</w>": 2798,
      "many</w>": 2799,
      "direc": 2800,
      "One</w>": 2801,
      "pat": 2802,
      "grou": 2803,
      "across</w>": 2804,
      "###</w>": 2805,
      "only</w>": 2806,
      "impl": 2807,
      "nam": 2808,
      "cru": 2809,
      "la": 2810,
      "ends</w>": 2811,
      "wa": 2812,
      "il</w>": 2813,
      "grap": 2814,
      "ack": 2815,
      "relation": 2816,
      "see": 2817,
      "without</w>": 2818,
      "including</w>": 2819,
      "ven</w>": 2820,
      "tively</w>": 2821,
      "among</w>": 2822,
      "har": 2823,
      "play": 2824,
      "plan": 2825,
      "towards</w>": 2826,
      "bility</w>": 2827,
      "often</w>": 2828,
      "day</w>": 2829,
      "plo": 2830,
      "agement</w>": 2831,
      "expres": 2832,
      "ols</w>": 2833,
      "ide": 2834,
      "tern": 2835,
      "unique</w>": 2836,
      "enh": 2837,
      "tain</w>": 2838,
      "portun": 2839,
      "bel": 2840,
      "ex</w>": 2841,
      "suppor": 2842,
      "Guidel": 2843,
      "ety</w>": 2844,
      "down</w>": 2845,
      "ared</w>": 2846,
      "cal": 2847,
      "necess": 2848,
      "stance</w>": 2849,
      "together</w>": 2850,
      "preci": 2851,
      "discus": 2852,
      "meth": 2853,
      "ditional</w>": 2854,
      "crucial</w>": 2855,
      "Ma": 2856,
      "being</w>": 2857,
      "ei": 2858,
      "medi": 2859,
      "viron": 2860,
      "ord": 2861,
      "fam": 2862,
      "me</w>": 2863,
      "ince</w>": 2864,
      "ital</w>": 2865,
      "zing</w>": 2866,
      "insi": 2867,
      "mark": 2868,
      "set</w>": 2869,
      "resi": 2870,
      "every</w>": 2871,
      "Re": 2872,
      "When</w>": 2873,
      "fully</w>": 2874,
      "number</w>": 2875,
      "imp": 2876,
      "learning</w>": 2877,
      "gg": 2878,
      "would</w>": 2879,
      "thers</w>": 2880,
      "kes</w>": 2881,
      "ise</w>": 2882,
      "every": 2883,
      "du": 2884,
      "consider</w>": 2885,
      "cle": 2886,
      "shap": 2887,
      "tici": 2888,
      "led": 2889,
      "life</w>": 2890,
      "sch": 2891,
      "opportun": 2892,
      "des": 2893,
      "ool</w>": 2894,
      "usin": 2895,
      "fost": 2896,
      "per</w>": 2897,
      "cour": 2898,
      "iques</w>": 2899,
      "hum": 2900,
      "ills</w>": 2901,
      "gu": 2902,
      "rev": 2903,
      "guid": 2904,
      "upon</w>": 2905,
      "organiz": 2906,
      "ilities</w>": 2907,
      "inc": 2908,
      "frac</w>": 2909,
      "issu": 2910,
      "concep": 2911,
      "ution</w>": 2912,
      "ben": 2913,
      "initi": 2914,
      "fur": 2915,
      "do</w>": 2916,
      "Let</w>": 2917,
      "owled": 2918,
      "comes</w>": 2919,
      "stead</w>": 2920,
      "eting</w>": 2921,
      "information</w>": 2922,
      "ques": 2923,
      "ople</w>": 2924,
      "arr": 2925,
      "mer": 2926,
      "read": 2927,
      "onom": 2928,
      "value</w>": 2929,
      "But</w>": 2930,
      "power</w>": 2931,
      "We</w>": 2932,
      "environ": 2933,
      "perform": 2934,
      "essi": 2935,
      ".\"</w>": 2936,
      "They</w>": 2937,
      "stems</w>": 2938,
      "beg": 2939,
      "emp": 2940,
      "histor": 2941,
      "contribut": 2942,
      "ships</w>": 2943,
      "challenges</w>": 2944,
      "were</w>": 2945,
      "most</w>": 2946,
      "usi": 2947,
      "ters</w>": 2948,
      "mov": 2949,
      "knowled": 2950,
      "pur": 2951,
      "find</w>": 2952,
      "practic": 2953,
      "complex</w>": 2954,
      "throughout</w>": 2955,
      "lin": 2956,
      "something</w>": 2957,
      "So</w>": 2958,
      "provide</w>": 2959,
      "she</w>": 2960,
      "duction</w>": 2961,
      "ances</w>": 2962,
      "ered</w>": 2963,
      "With</w>": 2964,
      "deci": 2965,
      "tre": 2966,
      "set": 2967,
      "actions</w>": 2968,
      "verse</w>": 2969,
      ":**</w>": 2970,
      "another</w>": 2971,
      "ous": 2972,
      "flu": 2973,
      "call": 2974,
      "no": 2975,
      "change</w>": 2976,
      "ind</w>": 2977,
      "others</w>": 2978,
      "meas": 2979,
      "ogn": 2980,
      "explore</w>": 2981,
      "itu": 2982,
      "everal</w>": 2983,
      "abli": 2984,
      "star": 2985,
      "continu": 2986,
      "forms</w>": 2987,
      "role</w>": 2988,
      "tural</w>": 2989,
      "regar": 2990,
      "example</w>": 2991,
      "ysi": 2992,
      "after</w>": 2993,
      "care": 2994,
      "exp": 2995,
      "no</w>": 2996,
      "stem</w>": 2997,
      "care</w>": 2998,
      "values</w>": 2999,
      "metho": 3000,
      "conf": 3001,
      "integr": 3002,
      "ingly</w>": 3003,
      "den": 3004,
      "While</w>": 3005,
      "$$</w>": 3006,
      "tor</w>": 3007,
      "ensure</w>": 3008,
      "had</w>": 3009,
      "oper": 3010,
      "need</w>": 3011,
      "busin": 3012,
      "growth</w>": 3013,
      "people</w>": 3014,
      "techniques</w>": 3015,
      "along</w>": 3016,
      "$\\</w>": 3017,
      "ote</w>": 3018,
      "get</w>": 3019,
      "abor": 3020,
      "wr": 3021,
      "further</w>": 3022,
      "ea": 3023,
      "create</w>": 3024,
      "sure</w>": 3025,
      "fr": 3026,
      "several</w>": 3027,
      "ip": 3028,
      "must</w>": 3029,
      "design": 3030,
      "deter": 3031,
      "dic": 3032,
      "ecting</w>": 3033,
      "prot": 3034,
      "social</w>": 3035,
      "sci": 3036,
      "action</w>": 3037,
      "charac": 3038,
      "mis": 3039,
      "function</w>": 3040,
      "sign</w>": 3041,
      "201": 3042,
      "prob": 3043,
      "Ac": 3044,
      "car": 3045,
      "effici": 3046,
      "emplo": 3047,
      "ism</w>": 3048,
      "{\\</w>": 3049,
      "well</w>": 3050,
      "concer": 3051,
      "mod": 3052,
      "19": 3053,
      "oday</w>": 3054,
      "research</w>": 3055,
      "ustom": 3056,
      "better</w>": 3057,
      "high</w>": 3058,
      "real</w>": 3059,
      "acy</w>": 3060,
      "ass</w>": 3061,
      "specif": 3062,
      "ables</w>": 3063,
      "ones</w>": 3064,
      "understand</w>": 3065,
      "pop": 3066,
      "overall</w>": 3067,
      "take</w>": 3068,
      "Ap": 3069,
      "mental</w>": 3070,
      "agine</w>": 3071,
      "contro": 3072,
      "dies</w>": 3073,
      "should</w>": 3074,
      "ply</w>": 3075,
      "brea": 3076,
      "izing</w>": 3077,
      "condi": 3078,
      "fy</w>": 3079,
      "If</w>": 3080,
      "ens</w>": 3081,
      "met": 3082,
      "sa": 3083,
      "partic": 3084,
      "personal</w>": 3085,
      "tures</w>": 3086,
      "factors</w>": 3087,
      "ven": 3088,
      "ris": 3089,
      "uture</w>": 3090,
      "differen": 3091,
      "comb": 3092,
      "include</w>": 3093,
      "ands</w>": 3094,
      "}{</w>": 3095,
      "uch</w>": 3096,
      "ams</w>": 3097,
      "individual</w>": 3098,
      "ticip": 3099,
      "experience</w>": 3100,
      "anced</w>": 3101,
      "been</w>": 3102,
      "Tit": 3103,
      "ically</w>": 3104,
      "The": 3105,
      "insights</w>": 3106,
      "strategies</w>": 3107,
      "steps</w>": 3108,
      "ergy</w>": 3109,
      "jour": 3110,
      "thin": 3111,
      "Throu": 3112,
      "ants</w>": 3113,
      "rest</w>": 3114,
      "play</w>": 3115,
      "educ": 3116,
      "your": 3117,
      "ey": 3118,
      "benef": 3119,
      "called</w>": 3120,
      "De": 3121,
      "ited</w>": 3122,
      "Title</w>": 3123,
      "atten": 3124,
      "feren": 3125,
      "att": 3126,
      "alized</w>": 3127,
      "prin": 3128,
      "avi": 3129,
      "aff": 3130,
      "enting</w>": 3131,
      "light</w>": 3132,
      "bal": 3133,
      "icate</w>": 3134,
      "ending</w>": 3135,
      "os</w>": 3136,
      "elec": 3137,
      "skills</w>": 3138,
      "following</w>": 3139,
      "sw": 3140,
      "ously</w>": 3141,
      "ran": 3142,
      "You</w>": 3143,
      "ist</w>": 3144,
      "development</w>": 3145,
      "ook</w>": 3146,
      "health</w>": 3147,
      "consist": 3148,
      "dam": 3149,
      "ws</w>": 3150,
      "cent": 3151,
      "point</w>": 3152,
      "eds</w>": 3153,
      "om</w>": 3154,
      "individuals</w>": 3155,
      "physi": 3156,
      "entation</w>": 3157,
      "hy": 3158,
      "xim": 3159,
      "dra": 3160,
      "ularly</w>": 3161,
      "op</w>": 3162,
      "preh": 3163,
      "assi": 3164,
      "ustr": 3165,
      "water</w>": 3166,
      "proper": 3167,
      "Rem": 3168,
      "systems</w>": 3169,
      "arti": 3170,
      "lit": 3171,
      "Intro": 3172,
      "cir": 3173,
      "led</w>": 3174,
      "eth": 3175,
      "under</w>": 3176,
      "face</w>": 3177,
      "igh": 3178,
      "tal": 3179,
      "numbers</w>": 3180,
      "ire</w>": 3181,
      "friends</w>": 3182,
      "necessary</w>": 3183,
      "tionally</w>": 3184,
      "yourself</w>": 3185,
      "tivity</w>": 3186,
      "corpor": 3187,
      "associ": 3188,
      "opportunities</w>": 3189,
      "atis": 3190,
      "ount</w>": 3191,
      "valuable</w>": 3192,
      "themati": 3193,
      "polic": 3194,
      "knowledge</w>": 3195,
      "ded</w>": 3196,
      "pect</w>": 3197,
      "ba": 3198,
      "custom": 3199,
      "works</w>": 3200,
      "atures</w>": 3201,
      "significant</w>": 3202,
      "saf": 3203,
      "certain</w>": 3204,
      "regarding</w>": 3205,
      "ough</w>": 3206,
      "fiel": 3207,
      "havi": 3208,
      "ant": 3209,
      "Tips</w>": 3210,
      "whether</w>": 3211,
      "ological</w>": 3212,
      "ear</w>": 3213,
      "And</w>": 3214,
      "ubli": 3215,
      "ause</w>": 3216,
      "patter": 3217,
      "ainst</w>": 3218,
      "reli": 3219,
      "resources</w>": 3220,
      "atives</w>": 3221,
      "ney</w>": 3222,
      "expec": 3223,
      "ject</w>": 3224,
      "establi": 3225,
      "influ": 3226,
      "issues</w>": 3227,
      "defin": 3228,
      "effor": 3229,
      "peri": 3230,
      "refl": 3231,
      "consider": 3232,
      "clos": 3233,
      "onstr": 3234,
      "antly</w>": 3235,
      "energy</w>": 3236,
      "thy</w>": 3237,
      "Pl": 3238,
      "Introduction</w>": 3239,
      "ensuring</w>": 3240,
      "specific</w>": 3241,
      "ligh": 3242,
      "three</w>": 3243,
      "practices</w>": 3244,
      "atur": 3245,
      "future</w>": 3246,
      "ths</w>": 3247,
      "become</w>": 3248,
      "against</w>": 3249,
      "des</w>": 3250,
      "tle</w>": 3251,
      "ories</w>": 3252,
      "ili": 3253,
      "econom": 3254,
      "allows</w>": 3255,
      "innov": 3256,
      "quality</w>": 3257,
      "*:</w>": 3258,
      "ping</w>": 3259,
      "inal</w>": 3260,
      "known</w>": 3261,
      "ref": 3262,
      "Under": 3263,
      "00</w>": 3264,
      "How</w>": 3265,
      "system</w>": 3266,
      "professi": 3267,
      "wid": 3268,
      "creating</w>": 3269,
      "mag": 3270,
      "points</w>": 3271,
      "Your</w>": 3272,
      "leg": 3273,
      "sen": 3274,
      "important</w>": 3275,
      "since</w>": 3276,
      "shed</w>": 3277,
      "behavi": 3278,
      "made</w>": 3279,
      "experiences</w>": 3280,
      "fa": 3281,
      "old</w>": 3282,
      "multiple</w>": 3283,
      "ied</w>": 3284,
      "ening</w>": 3285,
      "dig": 3286,
      "prehen": 3287,
      "compon": 3288,
      "sting</w>": 3289,
      "ination</w>": 3290,
      "orig": 3291,
      "communication</w>": 3292,
      "tives</w>": 3293,
      "here</w>": 3294,
      "mi": 3295,
      "reduc": 3296,
      "pite</w>": 3297,
      "becom": 3298,
      "idence</w>": 3299,
      "angu": 3300,
      "comput": 3301,
      "simil": 3302,
      "long</w>": 3303,
      "optim": 3304,
      "too</w>": 3305,
      "happ": 3306,
      "Em": 3307,
      "atic</w>": 3308,
      "emo": 3309,
      "More": 3310,
      "aim": 3311,
      "ativ": 3312,
      "instead</w>": 3313,
      "oid</w>": 3314,
      "Moreover</w>": 3315,
      "sty": 3316,
      "unit</w>": 3317,
      "Di": 3318,
      "demonstr": 3319,
      "ditionally</w>": 3320,
      "dev": 3321,
      "Be": 3322,
      "calcul": 3323,
      "graph": 3324,
      "ward</w>": 3325,
      "because</w>": 3326,
      "ored</w>": 3327,
      "community</w>": 3328,
      "support</w>": 3329,
      "space</w>": 3330,
      "bro": 3331,
      "tili": 3332,
      "avig": 3333,
      "princi": 3334,
      "Guidelines</w>": 3335,
      "tools</w>": 3336,
      "now</w>": 3337,
      "Res": 3338,
      "can": 3339,
      "dri": 3340,
      "trac": 3341,
      "ears</w>": 3342,
      "ur</w>": 3343,
      "local</w>": 3344,
      "know</w>": 3345,
      "sh</w>": 3346,
      "best</w>": 3347,
      "students</w>": 3348,
      "things</w>": 3349,
      "bri": 3350,
      "always</w>": 3351,
      "entr": 3352,
      "methods</w>": 3353,
      "ody</w>": 3354,
      "gover": 3355,
      "tivi": 3356,
      "impact</w>": 3357,
      "minim": 3358,
      "relationships</w>": 3359,
      "gl": 3360,
      "going</w>": 3361,
      "positive</w>": 3362,
      "case</w>": 3363,
      "aring</w>": 3364,
      "Ar": 3365,
      "pati": 3366,
      "Here</w>": 3367,
      "key</w>": 3368,
      "possible</w>": 3369,
      "collabor": 3370,
      "duce</w>": 3371,
      "left</w>": 3372,
      "ats</w>": 3373,
      "success": 3374,
      "asing</w>": 3375,
      "reng": 3376,
      "ick": 3377,
      "ancing</w>": 3378,
      "sl": 3379,
      "aches</w>": 3380,
      "related</w>": 3381,
      "Exam": 3382,
      "jects</w>": 3383,
      "$,</w>": 3384,
      "table</w>": 3385,
      "ish</w>": 3386,
      "auth": 3387,
      "ual</w>": 3388,
      "why</w>": 3389,
      "leading</w>": 3390,
      "achi": 3391,
      "Once</w>": 3392,
      "war": 3393,
      "Additionally</w>": 3394,
      "ented</w>": 3395,
      "Conclusion</w>": 3396,
      "working</w>": 3397,
      "ets</w>": 3398,
      "bey": 3399,
      "rang": 3400,
      "found</w>": 3401,
      "dy": 3402,
      "diverse</w>": 3403,
      "piec": 3404,
      "mean": 3405,
      "though</w>": 3406,
      "intere": 3407,
      "mathemati": 3408,
      "beyond</w>": 3409,
      "plat": 3410,
      "sed</w>": 3411,
      "ver</w>": 3412,
      "small</w>": 3413,
      "Af": 3414,
      "aut": 3415,
      "tem": 3416,
      "AA": 3417,
      "place</w>": 3418,
      "alig": 3419,
      "associated</w>": 3420,
      "sym": 3421,
      "stand": 3422,
      "Per": 3423,
      "ner": 3424,
      "elements</w>": 3425,
      "Consi": 3426,
      "given</w>": 3427,
      "deep": 3428,
      "Remember</w>": 3429,
      "progr": 3430,
      "conditions</w>": 3431,
      "view</w>": 3432,
      "oting</w>": 3433,
      "langu": 3434,
      "put</w>": 3435,
      "utions</w>": 3436,
      "lem</w>": 3437,
      "pects</w>": 3438,
      "term</w>": 3439,
      "$.</w>": 3440,
      "ching</w>": 3441,
      "appreci": 3442,
      "Fin": 3443,
      "journey</w>": 3444,
      "involves</w>": 3445,
      "open</w>": 3446,
      "Me": 3447,
      "providing</w>": 3448,
      "changes</w>": 3449,
      "questions</w>": 3450,
      "publi": 3451,
      "ali": 3452,
      "part</w>": 3453,
      "lead</w>": 3454,
      "abilities</w>": 3455,
      "aspects</w>": 3456,
      "anti": 3457,
      "tual</w>": 3458,
      "exploring</w>": 3459,
      "online</w>": 3460,
      "performance</w>": 3461,
      "instance</w>": 3462,
      "tivities</w>": 3463,
      "musi": 3464,
      "natur": 3465,
      "employ": 3466,
      "much</w>": 3467,
      "group</w>": 3468,
      "maintain</w>": 3469,
      "Through</w>": 3470,
      "learn</w>": 3471,
      "---</w>": 3472,
      "approach</w>": 3473,
      "offer</w>": 3474,
      "fol": 3475,
      "same</w>": 3476,
      "Fir": 3477,
      "streng": 3478,
      "Rec": 3479,
      "ules</w>": 3480,
      "men": 3481,
      "plac": 3482,
      "common</w>": 3483,
      "rather</w>": 3484,
      "til</w>": 3485,
      "serve</w>": 3486,
      "prev": 3487,
      "consum": 3488,
      "accur": 3489,
      "selves</w>": 3490,
      "ifically</w>": 3491,
      "10</w>": 3492,
      "recogn": 3493,
      "focus</w>": 3494,
      "numer": 3495,
      "needs</w>": 3496,
      "avail": 3497,
      "guide</w>": 3498,
      "areas</w>": 3499,
      "regi": 3500,
      "ilit": 3501,
      "incorpor": 3502,
      "gor": 3503,
      "top": 3504,
      "..": 3505,
      "aling</w>": 3506,
      "iring</w>": 3507,
      "patterns</w>": 3508,
      "step</w>": 3509,
      "erials</w>": 3510,
      "section</w>": 3511,
      "off</w>": 3512,
      "invest": 3513,
      "see</w>": 3514,
      "requires</w>": 3515,
      "ick</w>": 3516,
      "dr": 3517,
      "evels</w>": 3518,
      "results</w>": 3519,
      "less": 3520,
      "========": 3521,
      "encour": 3522,
      "exten": 3523,
      "At</w>": 3524,
      "position</w>": 3525,
      "ming</w>": 3526,
      "cultural</w>": 3527,
      "text</w>": 3528,
      "ower</w>": 3529,
      "dom": 3530,
      "everyone</w>": 3531,
      "row</w>": 3532,
      "vol": 3533,
      "ulation</w>": 3534,
      "cr": 3535,
      "does</w>": 3536,
      "particip": 3537,
      "Amer": 3538,
      "Ne": 3539,
      "Americ": 3540,
      "ails</w>": 3541,
      "ars</w>": 3542,
      "poli": 3543,
      "human</w>": 3544,
      "want</w>": 3545,
      "comprehen": 3546,
      "practice</w>": 3547,
      "levels</w>": 3548,
      "ann": 3549,
      "That</w>": 3550,
      "yet</w>": 3551,
      "share</w>": 3552,
      "design</w>": 3553,
      "alu": 3554,
      "ators</w>": 3555,
      "situ": 3556,
      "until</w>": 3557,
      "significantly</w>": 3558,
      "similar</w>": 3559,
      "stitu": 3560,
      "prog": 3561,
      "ia</w>": 3562,
      "remember</w>": 3563,
      "visu": 3564,
      "means</w>": 3565,
      "ective</w>": 3566,
      "ches</w>": 3567,
      "distri": 3568,
      "--</w>": 3569,
      "ld": 3570,
      "still</w>": 3571,
      "After</w>": 3572,
      "problem</w>": 3573,
      "scen": 3574,
      "eling</w>": 3575,
      "lea": 3576,
      "intro": 3577,
      "determin": 3578,
      "Understanding</w>": 3579,
      "maintaining</w>": 3580,
      "den</w>": 3581,
      "ization</w>": 3582,
      "fil": 3583,
      "echan": 3584,
      "surr": 3585,
      "--------------------------------": 3586,
      "eti": 3587,
      "ga": 3588,
      "ounding</w>": 3589,
      "don</w>": 3590,
      "stu": 3591,
      "squ": 3592,
      "work": 3593,
      "functions</w>": 3594,
      "access</w>": 3595,
      "rely</w>": 3596,
      "tation</w>": 3597,
      "activities</w>": 3598,
      "ys</w>": 3599,
      "importance</w>": 3600,
      "moder": 3601,
      "memb": 3602,
      "od</w>": 3603,
      "intr": 3604,
      "ained</w>": 3605,
      "enjo": 3606,
      "stre": 3607,
      "pose</w>": 3608,
      "ains</w>": 3609,
      "aries</w>": 3610,
      "mary</w>": 3611,
      "lob": 3612,
      "back": 3613,
      "evol": 3614,
      ",\"</w>": 3615,
      "ined</w>": 3616,
      "navig": 3617,
      "ute</w>": 3618,
      "dynam": 3619,
      "principles</w>": 3620,
      "ized</w>": 3621,
      "lines</w>": 3622,
      "perspec": 3623,
      "Fur": 3624,
      "part": 3625,
      "timately</w>": 3626,
      "shared</w>": 3627,
      "mom": 3628,
      "uses</w>": 3629,
      "eded</w>": 3630,
      "equation</w>": 3631,
      "look</w>": 3632,
      "offers</w>": 3633,
      "adap": 3634,
      "attention</w>": 3635,
      "components</w>": 3636,
      "transform": 3637,
      "appe": 3638,
      "relev": 3639,
      "inary</w>": 3640,
      "decid": 3641,
      "ancial</w>": 3642,
      "ulations</w>": 3643,
      "active</w>": 3644,
      "via</w>": 3645,
      "cles</w>": 3646,
      "ale</w>": 3647,
      "building</w>": 3648,
      "evalu": 3649,
      "cs</w>": 3650,
      "body</w>": 3651,
      "ope</w>": 3652,
      "ition</w>": 3653,
      "business</w>": 3654,
      "spor": 3655,
      "appropri": 3656,
      "hand": 3657,
      "power": 3658,
      "remains</w>": 3659,
      "otal</w>": 3660,
      "traditional</w>": 3661,
      "not": 3662,
      "fostering</w>": 3663,
      "neg": 3664,
      "cra": 3665,
      "Dis": 3666,
      "Sh": 3667,
      "Op": 3668,
      "product</w>": 3669,
      "cies</w>": 3670,
      "net": 3671,
      "effectively</w>": 3672,
      "processes</w>": 3673,
      "study</w>": 3674,
      "helps</w>": 3675,
      "structure</w>": 3676,
      "exi": 3677,
      "comfor": 3678,
      "types</w>": 3679,
      "technology</w>": 3680,
      "emerg": 3681,
      "construc": 3682,
      "groups</w>": 3683,
      "materials</w>": 3684,
      "esti": 3685,
      "try</w>": 3686,
      "audi": 3687,
      "becomes</w>": 3688,
      "sets</w>": 3689,
      "targ": 3690,
      "management</w>": 3691,
      "intern": 3692,
      "perf": 3693,
      "dre": 3694,
      "II</w>": 3695,
      "fying</w>": 3696,
      "area</w>": 3697,
      "ground</w>": 3698,
      "altern": 3699,
      "istic</w>": 3700,
      "contribute</w>": 3701,
      "decision</w>": 3702,
      "language</w>": 3703,
      "ove</w>": 3704,
      "nature</w>": 3705,
      "exist": 3706,
      "solutions</w>": 3707,
      "cle</w>": 3708,
      "insp": 3709,
      "conclusion</w>": 3710,
      "tas": 3711,
      "**:</w>": 3712,
      "today</w>": 3713,
      "course</w>": 3714,
      "natural</w>": 3715,
      "med": 3716,
      "beli": 3717,
      "public</w>": 3718,
      "stances</w>": 3719,
      "clear</w>": 3720,
      "begin</w>": 3721,
      "concepts</w>": 3722,
      "ually</w>": 3723,
      "ped</w>": 3724,
      "Imagine</w>": 3725,
      "keep</w>": 3726,
      "chil": 3727,
      "fas": 3728,
      "control</w>": 3729,
      "sures</w>": 3730,
      "erci": 3731,
      "desi": 3732,
      "def": 3733,
      "ber": 3734,
      "iel": 3735,
      "concerns</w>": 3736,
      "benefits</w>": 3737,
      "efforts</w>": 3738,
      "deeper</w>": 3739,
      "versity</w>": 3740,
      "stri": 3741,
      "Reg": 3742,
      "evel</w>": 3743,
      "ax": 3744,
      "connections</w>": 3745,
      "ressing</w>": 3746,
      "ners</w>": 3747,
      "dro": 3748,
      "sing": 3749,
      "gam": 3750,
      "next</w>": 3751,
      "thermore</w>": 3752,
      "uni": 3753,
      "size</w>": 3754,
      "terms</w>": 3755,
      "critical</w>": 3756,
      "ption</w>": 3757,
      "communities</w>": 3758,
      "Furthermore</w>": 3759,
      "her": 3760,
      "chec": 3761,
      "mechan": 3762,
      "available</w>": 3763,
      "depend": 3764,
      "provides</w>": 3765,
      "options</w>": 3766,
      "success</w>": 3767,
      "commit": 3768,
      "stat": 3769,
      "competi": 3770,
      "features</w>": 3771,
      "mine</w>": 3772,
      "ric</w>": 3773,
      "represents</w>": 3774,
      "my": 3775,
      "Mar": 3776,
      "result</w>": 3777,
      "ounds</w>": 3778,
      "icul": 3779,
      "tations</w>": 3780,
      "lar": 3781,
      "log": 3782,
      "inating</w>": 3783,
      "doc": 3784,
      "shing</w>": 3785,
      "nor": 3786,
      "needed</w>": 3787,
      "ious</w>": 3788,
      "fel": 3789,
      "applications</w>": 3790,
      "respec": 3791,
      "rep": 3792,
      "mun": 3793,
      "distinc": 3794,
      "relationship</w>": 3795,
      "ery</w>": 3796,
      "home</w>": 3797,
      "fill": 3798,
      "sust": 3799,
      "(\\</w>": 3800,
      "field</w>": 3801,
      "land": 3802,
      "extr": 3803,
      "hand</w>": 3804,
      "years</w>": 3805,
      "essing</w>": 3806,
      "hind</w>": 3807,
      "behavior</w>": 3808,
      "media</w>": 3809,
      "math": 3810,
      "effective</w>": 3811,
      "Consider</w>": 3812,
      "taking</w>": 3813,
      "ders</w>": 3814,
      "convers": 3815,
      "ator</w>": 3816,
      "ues</w>": 3817,
      "services</w>": 3818,
      "having</w>": 3819,
      "angle</w>": 3820,
      "successful</w>": 3821,
      "financial</w>": 3822,
      "education</w>": 3823,
      "interest</w>": 3824,
      "order</w>": 3825,
      "turn</w>": 3826,
      "physical</w>": 3827,
      "govern": 3828,
      "ites</w>": 3829,
      "users</w>": 3830,
      "inf": 3831,
      "special</w>": 3832,
      "family</w>": 3833,
      "original</w>": 3834,
      "Cre": 3835,
      "head</w>": 3836,
      "}}": 3837,
      "build</w>": 3838,
      "urity</w>": 3839,
      "strong</w>": 3840,
      "provided</w>": 3841,
      "members</w>": 3842,
      "level</w>": 3843,
      "complet": 3844,
      "allowing</w>": 3845,
      "lig": 3846,
      "wing</w>": 3847,
      "cy": 3848,
      "events</w>": 3849,
      "directly</w>": 3850,
      "estig": 3851,
      "outcomes</w>": 3852,
      "ferences</w>": 3853,
      "cam": 3854,
      "feel</w>": 3855,
      "aching</w>": 3856,
      "youn": 3857,
      "tail": 3858,
      "new": 3859,
      "away</w>": 3860,
      "Par": 3861,
      "owed</w>": 3862,
      "equal</w>": 3863,
      "Ha": 3864,
      "ource</w>": 3865,
      "Wor": 3866,
      "Ke": 3867,
      "disp": 3868,
      "balance</w>": 3869,
      "Des": 3870,
      "satis": 3871,
      "ve": 3872,
      "aged</w>": 3873,
      "list": 3874,
      "aps</w>": 3875,
      "analysis</w>": 3876,
      "modern</w>": 3877,
      "tial</w>": 3878,
      "early</w>": 3879,
      "focusing</w>": 3880,
      "stant</w>": 3881,
      "probl": 3882,
      "oration</w>": 3883,
      "go</w>": 3884,
      "ine": 3885,
      "porary</w>": 3886,
      "arri": 3887,
      "concept</w>": 3888,
      "involving</w>": 3889,
      "conver": 3890,
      "behind</w>": 3891,
      "glob": 3892,
      "oph": 3893,
      "achiev": 3894,
      "mil": 3895,
      "seeking</w>": 3896,
      "initial</w>": 3897,
      "descri": 3898,
      "pas": 3899,
      "ising</w>": 3900,
      "tren": 3901,
      "delve</w>": 3902,
      "surrounding</w>": 3903,
      "son</w>": 3904,
      "te</w>": 3905,
      "As": 3906,
      "Tim": 3907,
      "makes</w>": 3908,
      "bra": 3909,
      "rap": 3910,
      "deri": 3911,
      "Unit</w>": 3912,
      "trav": 3913,
      "economic</w>": 3914,
      "ner</w>": 3915,
      "lay": 3916,
      "hor": 3917,
      "think</w>": 3918,
      "sharing</w>": 3919,
      "eed</w>": 3920,
      "higher</w>": 3921,
      "rements</w>": 3922,
      "particularly</w>": 3923,
      "electr": 3924,
      "ideas</w>": 3925,
      "him</w>": 3926,
      "ected</w>": 3927,
      "simple</w>": 3928,
      "ells</w>": 3929,
      "goals</w>": 3930,
      "enough</w>": 3931,
      "scap": 3932,
      "shor": 3933,
      "digital</w>": 3934,
      "wat": 3935,
      "reve": 3936,
      "Qu": 3937,
      "ologies</w>": 3938,
      "deb": 3939,
      "zer": 3940,
      "ail</w>": 3941,
      "exciting</w>": 3942,
      "sometimes</w>": 3943,
      "What</w>": 3944,
      "relevant</w>": 3945,
      "):</w>": 3946,
      "mem": 3947,
      "coo": 3948,
      "additional</w>": 3949,
      "utili": 3950,
      "im</w>": 3951,
      "Sim": 3952,
      "recei": 3953,
      "once</w>": 3954,
      "approaches</w>": 3955,
      "character": 3956,
      "appropriate</w>": 3957,
      "Guideline</w>": 3958,
      "advent": 3959,
      "vis": 3960,
      "tan": 3961,
      "problems</w>": 3962,
      "history</w>": 3963,
      "kers</w>": 3964,
      "Before</w>": 3965,
      "learned</w>": 3966,
      "implem": 3967,
      "frequ": 3968,
      "expression</w>": 3969,
      "products</w>": 3970,
      "numerous</w>": 3971,
      "current</w>": 3972,
      "facilit": 3973,
      "lex</w>": 3974,
      "organizations</w>": 3975,
      "elling</w>": 3976,
      "found": 3977,
      "market</w>": 3978,
      "priv": 3979,
      "lab": 3980,
      "parts</w>": 3981,
      "Str": 3982,
      "denti": 3983,
      "move</w>": 3984,
      "previ": 3985,
      "very</w>": 3986,
      "anim": 3987,
      "distribu": 3988,
      "tex": 3989,
      "bloc": 3990,
      "deli": 3991,
      "Our</w>": 3992,
      "ries</w>": 3993,
      "utes</w>": 3994,
      "health": 3995,
      "vo": 3996,
      "sal": 3997,
      "hou": 3998,
      "rates</w>": 3999,
      "Prac": 4000,
      "simpl": 4001,
      "fig": 4002,
      "studies</w>": 4003,
      "comprehensive</w>": 4004,
      "mor": 4005,
      "game</w>": 4006,
      "yiel": 4007,
      "empha": 4008,
      "remain</w>": 4009,
      "engagement</w>": 4010,
      "historical</w>": 4011,
      "ugg": 4012,
      "He</w>": 4013,
      "stric": 4014,
      "Alex</w>": 4015,
      "safety</w>": 4016,
      "top</w>": 4017,
      "Cl": 4018,
      "ole</w>": 4019,
      "pu": 4020,
      "force</w>": 4021,
      "ere": 4022,
      "user</w>": 4023,
      "state</w>": 4024,
      "address</w>": 4025,
      "deep</w>": 4026,
      "turing</w>": 4027,
      "oned</w>": 4028,
      "decisions</w>": 4029,
      "^{</w>": 4030,
      "embrac": 4031,
      "larg": 4032,
      "lies</w>": 4033,
      "From</w>": 4034,
      "200": 4035,
      "words</w>": 4036,
      "arch": 4037,
      "mess": 4038,
      "expected</w>": 4039,
      "music</w>": 4040,
      "ograph": 4041,
      "formul": 4042,
      "exerci": 4043,
      "Po": 4044,
      "sib": 4045,
      "plays</w>": 4046,
      "enhance</w>": 4047,
      "involved</w>": 4048,
      "type</w>": 4049,
      "young</w>": 4050,
      "free</w>": 4051,
      "designed</w>": 4052,
      "wea": 4053,
      "investig": 4054,
      "someone</w>": 4055,
      "negative</w>": 4056,
      "friend</w>": 4057,
      "conv": 4058,
      "scienti": 4059,
      "themselves</w>": 4060,
      "platforms</w>": 4061,
      "content</w>": 4062,
      "eas": 4063,
      "Finally</w>": 4064,
      "ny</w>": 4065,
      "isms</w>": 4066,
      "Devel": 4067,
      "grad": 4068,
      "Jo": 4069,
      "forward</w>": 4070,
      "promoting</w>": 4071,
      "compared</w>": 4072,
      "true</w>": 4073,
      "progress</w>": 4074,
      "sources</w>": 4075,
      "gain</w>": 4076,
      "fasc": 4077,
      "ensures</w>": 4078,
      "Keep</w>": 4079,
      "cou": 4080,
      "large</w>": 4081,
      "maxim": 4082,
      "culture</w>": 4083,
      "greater</w>": 4084,
      "continue</w>": 4085,
      "evidence</w>": 4086,
      "single</w>": 4087,
      "Use</w>": 4088,
      "Some</w>": 4089,
      "sett": 4090,
      "encoun": 4091,
      "accoun": 4092,
      "finding</w>": 4093,
      "First</w>": 4094,
      "fav": 4095,
      "sta": 4096,
      "leng": 4097,
      "oms</w>": 4098,
      "present</w>": 4099,
      "allow</w>": 4100,
      "overed</w>": 4101,
      "ie</w>": 4102,
      "##</w>": 4103,
      "any": 4104,
      "properties</w>": 4105,
      "unc": 4106,
      "seem": 4107,
      "ball</w>": 4108,
      "ee": 4109,
      "sustain": 4110,
      "above</w>": 4111,
      "An</w>": 4112,
      "broad": 4113,
      "structures</w>": 4114,
      "team</w>": 4115,
      "increased</w>": 4116,
      "Spec": 4117,
      "assum": 4118,
      "shif": 4119,
      "sugg": 4120,
      "real": 4121,
      "refore</w>": 4122,
      "shape</w>": 4123,
      "Stu": 4124,
      "sibility</w>": 4125,
      "oved</w>": 4126,
      "incorporating</w>": 4127,
      "landscap": 4128,
      "context</w>": 4129,
      "compan": 4130,
      "yn": 4131,
      "businesses</w>": 4132,
      "otes</w>": 4133,
      "tin": 4134,
      "ours</w>": 4135,
      "web": 4136,
      "ght": 4137,
      "ify</w>": 4138,
      "lying</w>": 4139,
      "bound": 4140,
      "osing</w>": 4141,
      "powerful</w>": 4142,
      "food</w>": 4143,
      "dy</w>": 4144,
      "ath</w>": 4145,
      "ots</w>": 4146,
      "vec": 4147,
      "identify</w>": 4148,
      "Analy": 4149,
      "Tip</w>": 4150,
      "long": 4151,
      "dom</w>": 4152,
      "contem": 4153,
      "objec": 4154,
      "easi": 4155,
      "air</w>": 4156,
      "either</w>": 4157,
      "informed</w>": 4158,
      "non</w>": 4159,
      "hom": 4160,
      "school</w>": 4161,
      "production</w>": 4162,
      "mind</w>": 4163,
      "ids</w>": 4164,
      "required</w>": 4165,
      "}\\</w>": 4166,
      "zero</w>": 4167,
      "Cho": 4168,
      "stories</w>": 4169,
      "arity</w>": 4170,
      "respect</w>": 4171,
      "radi": 4172,
      "fundam": 4173,
      "quanti": 4174,
      "improv": 4175,
      "industr": 4176,
      "industry</w>": 4177,
      "read</w>": 4178,
      "preser": 4179,
      "itable</w>": 4180,
      "treat": 4181,
      "style</w>": 4182,
      "cat": 4183,
      "ourse</w>": 4184,
      "onto</w>": 4185,
      "cli": 4186,
      "del</w>": 4187,
      "Today</w>": 4188,
      "items</w>": 4189,
      "correspon": 4190,
      "solving</w>": 4191,
      "setting</w>": 4192,
      "mast": 4193,
      "person": 4194,
      "ording</w>": 4195,
      "ake</w>": 4196,
      "aily</w>": 4197,
      "dive</w>": 4198,
      "ufac": 4199,
      "advant": 4200,
      "challenge</w>": 4201,
      "did</w>": 4202,
      "room</w>": 4203,
      "avoid</w>": 4204,
      "location</w>": 4205,
      "application</w>": 4206,
      "ma</w>": 4207,
      "Man": 4208,
      "popular</w>": 4209,
      "exac": 4210,
      "measures</w>": 4211,
      "aying</w>": 4212,
      "awa": 4213,
      "fram": 4214,
      "cally</w>": 4215,
      "rt</w>": 4216,
      "isn</w>": 4217,
      "icial</w>": 4218,
      "risk</w>": 4219,
      "professional</w>": 4220,
      "non": 4221,
      "environmental</w>": 4222,
      "love</w>": 4223,
      "ode</w>": 4224,
      "models</w>": 4225,
      "flic": 4226,
      "tically</w>": 4227,
      "addressing</w>": 4228,
      "inside</w>": 4229,
      "20</w>": 4230,
      "interpre": 4231,
      "start</w>": 4232,
      "small": 4233,
      "wal": 4234,
      "specifically</w>": 4235,
      "ury</w>": 4236,
      "good</w>": 4237,
      "total</w>": 4238,
      "port</w>": 4239,
      "full</w>": 4240,
      "environment</w>": 4241,
      "nov": 4242,
      "marketing</w>": 4243,
      "liter": 4244,
      "enables</w>": 4245,
      "engaging</w>": 4246,
      "city</w>": 4247,
      "equip": 4248,
      "Inter": 4249,
      "trust</w>": 4250,
      "imagine</w>": 4251,
      "ultimately</w>": 4252,
      "basi": 4253,
      "alls</w>": 4254,
      "collaboration</w>": 4255,
      "dition</w>": 4256,
      "reas": 4257,
      "did": 4258,
      "tou": 4259,
      "She</w>": 4260,
      "ring</w>": 4261,
      "cu": 4262,
      "quick": 4263,
      "entially</w>": 4264,
      "Ph": 4265,
      "recent</w>": 4266,
      "profession": 4267,
      "interests</w>": 4268,
      "icro": 4269,
      "eve</w>": 4270,
      "docum": 4271,
      "engage</w>": 4272,
      "rules</w>": 4273,
      "alization</w>": 4274,
      "correc": 4275,
      "illustr": 4276,
      "ush</w>": 4277,
      "scenari": 4278,
      "costs</w>": 4279,
      "For": 4280,
      "exploration</w>": 4281,
      "trends</w>": 4282,
      "ash": 4283,
      "political</w>": 4284,
      "stit": 4285,
      "####</w>": 4286,
      "existing</w>": 4287,
      "consistent</w>": 4288,
      "alog": 4289,
      "aimed</w>": 4290,
      "He": 4291,
      "global</w>": 4292,
      "complex": 4293,
      "Despite</w>": 4294,
      "dered</w>": 4295,
      "prior": 4296,
      "particular</w>": 4297,
      "Another</w>": 4298,
      "sequently</w>": 4299,
      "acts</w>": 4300,
      "improve</w>": 4301,
      "range</w>": 4302,
      "Using</w>": 4303,
      "suff": 4304,
      "discover": 4305,
      "ash</w>": 4306,
      "cipl": 4307,
      "etting</w>": 4308,
      "pan": 4309,
      "examine</w>": 4310,
      "emic</w>": 4311,
      "temper": 4312,
      "bur": 4313,
      "Be</w>": 4314,
      "predic": 4315,
      "experim": 4316,
      "sequences</w>": 4317,
      "resili": 4318,
      "agre": 4319,
      "sum</w>": 4320,
      "rich</w>": 4321,
      "ended</w>": 4322,
      "pap": 4323,
      "Hi": 4324,
      "therap": 4325,
      "uro": 4326,
      "American</w>": 4327,
      "separ": 4328,
      "kets</w>": 4329,
      "daily</w>": 4330,
      "wise</w>": 4331,
      "represent</w>": 4332,
      "reach</w>": 4333,
      "nu": 4334,
      "decided</w>": 4335,
      "ta</w>": 4336,
      "sof": 4337,
      "playing</w>": 4338,
      "shaping</w>": 4339,
      "distinct</w>": 4340,
      "spea": 4341,
      "little</w>": 4342,
      "dings</w>": 4343,
      "careful</w>": 4344,
      "lik": 4345,
      "ele": 4346,
      "despite</w>": 4347,
      "wide</w>": 4348,
      "_1</w>": 4349,
      "add</w>": 4350,
      "Gre": 4351,
      "Eng": 4352,
      "Each</w>": 4353,
      "Li": 4354,
      "amount</w>": 4355,
      "atory</w>": 4356,
      "adj": 4357,
      "won": 4358,
      "Pol": 4359,
      "friend": 4360,
      "boo": 4361,
      "regular</w>": 4362,
      "fied</w>": 4363,
      "optimal</w>": 4364,
      "Bu": 4365,
      "zed</w>": 4366,
      "ready</w>": 4367,
      "solution</w>": 4368,
      "discipl": 4369,
      "?\"</w>": 4370,
      "spac": 4371,
      "vital</w>": 4372,
      "mut": 4373,
      "vision</w>": 4374,
      "ush": 4375,
      "ativity</w>": 4376,
      "applying</w>": 4377,
      "core</w>": 4378,
      "enced</w>": 4379,
      "perspectives</w>": 4380,
      "typically</w>": 4381,
      "ened</w>": 4382,
      "healthcare</w>": 4383,
      "wee": 4384,
      "ging</w>": 4385,
      "security</w>": 4386,
      "answ": 4387,
      "posed</w>": 4388,
      "started</w>": 4389,
      "arm": 4390,
      "primary</w>": 4391,
      "Identi": 4392,
      "rix</w>": 4393,
      "aspect</w>": 4394,
      "ym": 4395,
      "alities</w>": 4396,
      "second</w>": 4397,
      "resulting</w>": 4398,
      "Since</w>": 4399,
      "earli": 4400,
      "doing</w>": 4401,
      "forc": 4402,
      "intricate</w>": 4403,
      "atively</w>": 4404,
      "however</w>": 4405,
      "ses": 4406,
      "occ": 4407,
      "val</w>": 4408,
      "site</w>": 4409,
      "lives</w>": 4410,
      "ially</w>": 4411,
      "ton</w>": 4412,
      "everything</w>": 4413,
      "apply</w>": 4414,
      "ongoing</w>": 4415,
      "carefully</w>": 4416,
      "tane": 4417,
      "ule</w>": 4418,
      "Sel": 4419,
      "ah</w>": 4420,
      "bor": 4421,
      "institu": 4422,
      "mean</w>": 4423,
      "identity</w>": 4424,
      "So": 4425,
      "earch</w>": 4426,
      "rate</w>": 4427,
      "fascinating</w>": 4428,
      "challenging</w>": 4429,
      "develop</w>": 4430,
      "depending</w>": 4431,
      "fundamental</w>": 4432,
      "policies</w>": 4433,
      "color</w>": 4434,
      "hab": 4435,
      "thor": 4436,
      "contemporary</w>": 4437,
      "Appl": 4438,
      "ges</w>": 4439,
      "dimen": 4440,
      "Chri": 4441,
      "foster</w>": 4442,
      "enab": 4443,
      "fer": 4444,
      "guidel": 4445,
      "eli": 4446,
      "planning</w>": 4447,
      "far</w>": 4448,
      "society</w>": 4449,
      "quickly</w>": 4450,
      "sil": 4451,
      "story</w>": 4452,
      "meaning": 4453,
      "estim": 4454,
      "Instead</w>": 4455,
      "proper</w>": 4456,
      "Therefore</w>": 4457,
      "ef</w>": 4458,
      "mach": 4459,
      "chem": 4460,
      "itself</w>": 4461,
      "speci": 4462,
      "visual</w>": 4463,
      "Thus</w>": 4464,
      "legal</w>": 4465,
      "pic": 4466,
      "cases</w>": 4467,
      "bac": 4468,
      "manufac": 4469,
      "book</w>": 4470,
      "eness</w>": 4471,
      "Sec": 4472,
      "sq": 4473,
      "categ": 4474,
      "vir": 4475,
      "hold</w>": 4476,
      "writ": 4477,
      "theore": 4478,
      "ably</w>": 4479,
      "eter": 4480,
      "ken</w>": 4481,
      "wel": 4482,
      "examining</w>": 4483,
      "oods</w>": 4484,
      "underlying</w>": 4485,
      "choose</w>": 4486,
      "require</w>": 4487,
      "own": 4488,
      "inst": 4489,
      "fication</w>": 4490,
      "looking</w>": 4491,
      "edback</w>": 4492,
      "past</w>": 4493,
      "=\\</w>": 4494,
      "multipl": 4495,
      "according</w>": 4496,
      "indic": 4497,
      "earlier</w>": 4498,
      "mathb": 4499,
      "determine</w>": 4500,
      "matter</w>": 4501,
      "thinking</w>": 4502,
      "favor": 4503,
      "Mo": 4504,
      "contr": 4505,
      "(-</w>": 4506,
      "adding</w>": 4507,
      "ores</w>": 4508,
      "espec": 4509,
      "project</w>": 4510,
      "innovation</w>": 4511,
      "risks</w>": 4512,
      "especially</w>": 4513,
      "training</w>": 4514,
      "Simil": 4515,
      "Example</w>": 4516,
      "science</w>": 4517,
      "pieces</w>": 4518,
      "bol": 4519,
      "conduc": 4520,
      "tun": 4521,
      "prevent</w>": 4522,
      "hal": 4523,
      "near</w>": 4524,
      "sqrt</w>": 4525,
      "piece</w>": 4526,
      "tru": 4527,
      "lower</w>": 4528,
      "four</w>": 4529,
      "examples</w>": 4530,
      "final</w>": 4531,
      "perc": 4532,
      "cost</w>": 4533,
      "eu": 4534,
      "stry</w>": 4535,
      "perfect</w>": 4536,
      "famili": 4537,
      "preferences</w>": 4538,
      "wan": 4539,
      "transi": 4540,
      "arrang": 4541,
      "approxim": 4542,
      "pt</w>": 4543,
      "ric": 4544,
      "ber</w>": 4545,
      "alternative</w>": 4546,
      "pressure</w>": 4547,
      "ference</w>": 4548,
      "living</w>": 4549,
      "property</w>": 4550,
      "matrix</w>": 4551,
      "hid": 4552,
      "serves</w>": 4553,
      "entire</w>": 4554,
      "ldn</w>": 4555,
      "erial</w>": 4556,
      "distribution</w>": 4557,
      "pass": 4558,
      "omet": 4559,
      "strugg": 4560,
      "conflic": 4561,
      "ired</w>": 4562,
      "vide": 4563,
      "chers</w>": 4564,
      "reducing</w>": 4565,
      "smaller</w>": 4566,
      "wom": 4567,
      "there": 4568,
      "Acc": 4569,
      "policy</w>": 4570,
      "law</w>": 4571,
      "adop": 4572,
      "ark</w>": 4573,
      "man</w>": 4574,
      "craf": 4575,
      "bit</w>": 4576,
      "surface</w>": 4577,
      "diag": 4578,
      "classi": 4579,
      "Mon": 4580,
      "linear</w>": 4581,
      "sense</w>": 4582,
      "changing</w>": 4583,
      "itation</w>": 4584,
      "sibilities</w>": 4585,
      "eping</w>": 4586,
      "interactions</w>": 4587,
      "square</w>": 4588,
      "syn": 4589,
      "El": 4590,
      "programs</w>": 4591,
      "influence</w>": 4592,
      "sor": 4593,
      "efficient</w>": 4594,
      "sin</w>": 4595,
      "narr": 4596,
      "operations</w>": 4597,
      "promote</w>": 4598,
      "hours</w>": 4599,
      "fun</w>": 4600,
      "advanced</w>": 4601,
      "sear": 4602,
      "say</w>": 4603,
      "rights</w>": 4604,
      "osity</w>": 4605,
      "land</w>": 4606,
      "Sup": 4607,
      "connection</w>": 4608,
      "tailored</w>": 4609,
      "idst</w>": 4610,
      "Just</w>": 4611,
      "idea</w>": 4612,
      "account</w>": 4613,
      "encies</w>": 4614,
      "etc</w>": 4615,
      "details</w>": 4616,
      "apter</w>": 4617,
      "tasks</w>": 4618,
      "upd": 4619,
      "enhancing</w>": 4620,
      "dynamics</w>": 4621,
      "introduc": 4622,
      "resol": 4623,
      "rob": 4624,
      "larger</w>": 4625,
      "close</w>": 4626,
      "ho": 4627,
      "There</w>": 4628,
      "desired</w>": 4629,
      "refers</w>": 4630,
      "follow</w>": 4631,
      "topics</w>": 4632,
      "On</w>": 4633,
      "easy</w>": 4634,
      "responsible</w>": 4635,
      "requirements</w>": 4636,
      "heav": 4637,
      "hood</w>": 4638,
      "implications</w>": 4639,
      "clean": 4640,
      "name</w>": 4641,
      "ban": 4642,
      "fru": 4643,
      "question</w>": 4644,
      "named</w>": 4645,
      "independ": 4646,
      "sun": 4647,
      "model</w>": 4648,
      "sam": 4649,
      "zes</w>": 4650,
      "bon": 4651,
      "cy</w>": 4652,
      "thought</w>": 4653,
      "base</w>": 4654,
      "utting</w>": 4655,
      "projects</w>": 4656,
      "tware</w>": 4657,
      "constant</w>": 4658,
      "filled</w>": 4659,
      "Consequently</w>": 4660,
      "forces</w>": 4661,
      "increase</w>": 4662,
      "run": 4663,
      "int</w>": 4664,
      "settings</w>": 4665,
      "scre": 4666,
      "emotional</w>": 4667,
      "tability</w>": 4668,
      "Next</w>": 4669,
      "professionals</w>": 4670,
      "never</w>": 4671,
      "theory</w>": 4672,
      "company</w>": 4673,
      "eless</w>": 4674,
      "onic</w>": 4675,
      "coming</w>": 4676,
      "rigor": 4677,
      "faced</w>": 4678,
      "formula</w>": 4679,
      "reness</w>": 4680,
      "mus": 4681,
      "frame": 4682,
      "series</w>": 4683,
      ")^</w>": 4684,
      "resilience</w>": 4685,
      "ects</w>": 4686,
      "xed</w>": 4687,
      "...</w>": 4688,
      "feedback</w>": 4689,
      "continued</w>": 4690,
      "asting</w>": 4691,
      "ls</w>": 4692,
      "service</w>": 4693,
      "few</w>": 4694,
      "big</w>": 4695,
      "broader</w>": 4696,
      "differences</w>": 4697,
      "dit</w>": 4698,
      "cum": 4699,
      "ptions</w>": 4700,
      "Sar": 4701,
      "}$</w>": 4702,
      "person</w>": 4703,
      "Tran": 4704,
      "aw": 4705,
      "Sch": 4706,
      "significance</w>": 4707,
      "lights</w>": 4708,
      "weight</w>": 4709,
      "compar": 4710,
      "ker</w>": 4711,
      "effects</w>": 4712,
      "Am": 4713,
      "lessons</w>": 4714,
      "expan": 4715,
      "phot": 4716,
      "lighting</w>": 4717,
      "equations</w>": 4718,
      "tioning</w>": 4719,
      "schol": 4720,
      "eted</w>": 4721,
      "ading</w>": 4722,
      "Their</w>": 4723,
      "cop": 4724,
      "ethical</w>": 4725,
      "heart</w>": 4726,
      "roles</w>": 4727,
      "enabling</w>": 4728,
      "offering</w>": 4729,
      "variables</w>": 4730,
      "established</w>": 4731,
      "ense</w>": 4732,
      "seem</w>": 4733,
      "autom": 4734,
      "mathematical</w>": 4735,
      "give</w>": 4736,
      "astly</w>": 4737,
      "Or": 4738,
      "pathy</w>": 4739,
      "views</w>": 4740,
      "simul": 4741,
      "skin</w>": 4742,
      "Research</w>": 4743,
      "Av": 4744,
      "purch": 4745,
      "exactly</w>": 4746,
      "los": 4747,
      "engine": 4748,
      "activity</w>": 4749,
      "asingly</w>": 4750,
      "box</w>": 4751,
      "choices</w>": 4752,
      "mini": 4753,
      "efficiency</w>": 4754,
      "situations</w>": 4755,
      "sides</w>": 4756,
      "coord": 4757,
      "discovered</w>": 4758,
      "Gr": 4759,
      "difficul": 4760,
      "length</w>": 4761,
      "Techn": 4762,
      "basic</w>": 4763,
      "increasingly</w>": 4764,
      "expectations</w>": 4765,
      "medical</w>": 4766,
      "rele": 4767,
      "rigorous</w>": 4768,
      "phen": 4769,
      "commitment</w>": 4770,
      "hon": 4771,
      "regul": 4772,
      "mol": 4773,
      "observ": 4774,
      "orial</w>": 4775,
      "pursu": 4776,
      "aim</w>": 4777,
      "guidelines</w>": 4778,
      "innovative</w>": 4779,
      "reduce</w>": 4780,
      "equi": 4781,
      "Co": 4782,
      "Sk": 4783,
      "tang": 4784,
      "customer</w>": 4785,
      "navigate</w>": 4786,
      "starting</w>": 4787,
      "continuous</w>": 4788,
      "outside</w>": 4789,
      "alize</w>": 4790,
      "irs</w>": 4791,
      "acad": 4792,
      "began</w>": 4793,
      "gar": 4794,
      "ox": 4795,
      "remin": 4796,
      "meaningful</w>": 4797,
      "deed</w>": 4798,
      "ee</w>": 4799,
      "etal</w>": 4800,
      "rout": 4801,
      "Develop": 4802,
      "gorith": 4803,
      "paper</w>": 4804,
      "elebr": 4805,
      "12</w>": 4806,
      "Ob": 4807,
      "Go": 4808,
      "aster</w>": 4809,
      "boundaries</w>": 4810,
      "Choose</w>": 4811,
      "recomm": 4812,
      "Section</w>": 4813,
      "jud": 4814,
      "sted</w>": 4815,
      "amidst</w>": 4816,
      "simply</w>": 4817,
      "ink</w>": 4818,
      "flexi": 4819,
      "thereby</w>": 4820,
      "year</w>": 4821,
      "clim": 4822,
      "Ben": 4823,
      "word</w>": 4824,
      "asses</w>": 4825,
      "evi": 4826,
      "Similarly</w>": 4827,
      "awareness</w>": 4828,
      "let": 4829,
      "ads</w>": 4830,
      "direct</w>": 4831,
      "ists</w>": 4832,
      "analyzing</w>": 4833,
      "istics</w>": 4834,
      "_2</w>": 4835,
      "fre": 4836,
      "opportunity</w>": 4837,
      "Make</w>": 4838,
      "adventure</w>": 4839,
      "auti": 4840,
      "ird</w>": 4841,
      "itor</w>": 4842,
      "difference</w>": 4843,
      "hard</w>": 4844,
      "goal</w>": 4845,
      "ign</w>": 4846,
      "mal</w>": 4847,
      "ops</w>": 4848,
      "Vi": 4849,
      "discuss</w>": 4850,
      "Lastly</w>": 4851,
      "stra": 4852,
      "tt": 4853,
      "dou": 4854,
      "international</w>": 4855,
      "seas": 4856,
      "usu": 4857,
      "ternal</w>": 4858,
      "alizing</w>": 4859,
      "occur": 4860,
      "instruc": 4861,
      "ership</w>": 4862,
      "encing</w>": 4863,
      "Mat": 4864,
      "considering</w>": 4865,
      "distance</w>": 4866,
      "method</w>": 4867,
      "tip</w>": 4868,
      "omen": 4869,
      "herent</w>": 4870,
      "frac": 4871,
      "appreciation</w>": 4872,
      "meaning</w>": 4873,
      "Sol": 4874,
      "players</w>": 4875,
      "align</w>": 4876,
      "fields</w>": 4877,
      "Pri": 4878,
      "meet</w>": 4879,
      "previous</w>": 4880,
      "point": 4881,
      "dren</w>": 4882,
      "researchers</w>": 4883,
      "equality</w>": 4884,
      "Tra": 4885,
      "exec": 4886,
      "sound</w>": 4887,
      "esn</w>": 4888,
      "stay</w>": 4889,
      "connected</w>": 4890,
      "test</w>": 4891,
      "acqu": 4892,
      "later</w>": 4893,
      "creativity</w>": 4894,
      "itations</w>": 4895,
      "plan</w>": 4896,
      "defined</w>": 4897,
      "served</w>": 4898,
      "days</w>": 4899,
      "sych": 4900,
      "foundation</w>": 4901,
      "confidence</w>": 4902,
      "managing</w>": 4903,
      "taneously</w>": 4904,
      "response</w>": 4905,
      "increasing</w>": 4906,
      "osen</w>": 4907,
      "Fac": 4908,
      "thus</w>": 4909,
      "menti": 4910,
      "sensi": 4911,
      "faces</w>": 4912,
      "complete</w>": 4913,
      "alism</w>": 4914,
      "utri": 4915,
      "potentially</w>": 4916,
      "software</w>": 4917,
      "eful</w>": 4918,
      "New</w>": 4919,
      "closer</w>": 4920,
      "Expl": 4921,
      "healthy</w>": 4922,
      "cross</w>": 4923,
      "interven": 4924,
      "sites</w>": 4925,
      "short</w>": 4926,
      "enth": 4927,
      "down": 4928,
      "unexpected</w>": 4929,
      "customers</w>": 4930,
      "measu": 4931,
      "alike</w>": 4932,
      "developing</w>": 4933,
      "inate</w>": 4934,
      "author": 4935,
      "organization</w>": 4936,
      "oes</w>": 4937,
      "poss": 4938,
      "Inte": 4939,
      "capable</w>": 4940,
      "doesn</w>": 4941,
      "reading</w>": 4942,
      "again</w>": 4943,
      "where": 4944,
      "maj": 4945,
      "tool</w>": 4946,
      "government</w>": 4947,
      "cells</w>": 4948,
      "states</w>": 4949,
      "Gen": 4950,
      "000</w>": 4951,
      "paren": 4952,
      "!\"</w>": 4953,
      "appreciate</w>": 4954,
      "transpor": 4955,
      "diversity</w>": 4956,
      "reci": 4957,
      "enable</w>": 4958,
      "technologies</w>": 4959,
      "takes</w>": 4960,
      "show": 4961,
      "dialog": 4962,
      ")$</w>": 4963,
      "dly</w>": 4964,
      "religi": 4965,
      "comfort</w>": 4966,
      "strategic</w>": 4967,
      "character</w>": 4968,
      "Sarah</w>": 4969,
      "landscape</w>": 4970,
      "adjust": 4971,
      "phenomen": 4972,
      "devices</w>": 4973,
      "immedi": 4974,
      "ised</w>": 4975,
      "exhi": 4976,
      "AAAA": 4977,
      "pe</w>": 4978,
      "enever</w>": 4979,
      "sit</w>": 4980,
      "Accor": 4981,
      "stly</w>": 4982,
      "cians</w>": 4983,
      "net</w>": 4984,
      "race</w>": 4985,
      "Wel": 4986,
      "realized</w>": 4987,
      "itize</w>": 4988,
      "itting</w>": 4989,
      "stress</w>": 4990,
      "mechanisms</w>": 4991,
      "beauti": 4992,
      "ext": 4993,
      "------------": 4994,
      "Su": 4995,
      "money</w>": 4996,
      "repe": 4997,
      "moving</w>": 4998,
      "statis": 4999,
      "games</w>": 5000,
      "itive</w>": 5001,
      "iosity</w>": 5002,
      "came</w>": 5003,
      "fore": 5004,
      "_n</w>": 5005,
      "Happ": 5006,
      "siv": 5007,
      "robust</w>": 5008,
      "lat": 5009,
      "material</w>": 5010,
      "algorith": 5011,
      "appear": 5012,
      "findings</w>": 5013,
      "rency</w>": 5014,
      "emphasi": 5015,
      "formation</w>": 5016,
      "Fe": 5017,
      "motiv": 5018,
      "edge</w>": 5019,
      "spaces</w>": 5020,
      "Well</w>": 5021,
      "rule</w>": 5022,
      "involve</w>": 5023,
      "enjoy</w>": 5024,
      "Why</w>": 5025,
      "sle": 5026,
      "__": 5027,
      "Coll": 5028,
      "cannot</w>": 5029,
      "establish</w>": 5030,
      "embracing</w>": 5031,
      "treatment</w>": 5032,
      "environments</w>": 5033,
      "sug": 5034,
      "================": 5035,
      "Commun": 5036,
      "toward</w>": 5037,
      "smo": 5038,
      "volum": 5039,
      "chosen</w>": 5040,
      "view": 5041,
      "During</w>": 5042,
      "strategy</w>": 5043,
      "main</w>": 5044,
      "writing</w>": 5045,
      "\\\\</w>": 5046,
      "colle": 5047,
      "ached</w>": 5048,
      "attemp": 5049,
      "thre": 5050,
      "discussions</w>": 5051,
      "show</w>": 5052,
      "Jam": 5053,
      "circum": 5054,
      "wanted</w>": 5055,
      "enthusi": 5056,
      "cultiv": 5057,
      "persi": 5058,
      "err": 5059,
      "enses</w>": 5060,
      "Course</w>": 5061,
      "check</w>": 5062,
      "Car": 5063,
      "period</w>": 5064,
      "ought</w>": 5065,
      "Over": 5066,
      "dise": 5067,
      "analyze</w>": 5068,
      "speed</w>": 5069,
      "Although</w>": 5070,
      "oted</w>": 5071,
      "ises</w>": 5072,
      "zz": 5073,
      "18": 5074,
      "job</w>": 5075,
      "accurate</w>": 5076,
      "ched</w>": 5077,
      "bs</w>": 5078,
      "Impl": 5079,
      "mentioned</w>": 5080,
      "whole</w>": 5081,
      "motion</w>": 5082,
      "aims</w>": 5083,
      "call</w>": 5084,
      "issue</w>": 5085,
      "amet": 5086,
      "Buil": 5087,
      "astic</w>": 5088,
      "tered</w>": 5089,
      "Col": 5090,
      "felt</w>": 5091,
      "inning</w>": 5092,
      "track</w>": 5093,
      "town</w>": 5094,
      "Bl": 5095,
      "class</w>": 5096,
      "Joh": 5097,
      "nic": 5098,
      "truly</w>": 5099,
      "said</w>": 5100,
      "ades</w>": 5101,
      "target</w>": 5102,
      "bed</w>": 5103,
      "seemingly</w>": 5104,
      "empathy</w>": 5105,
      "list</w>": 5106,
      "Specifically</w>": 5107,
      "vector</w>": 5108,
      "positions</w>": 5109,
      "rs</w>": 5110,
      "proced": 5111,
      "situation</w>": 5112,
      "conversations</w>": 5113,
      "improved</w>": 5114,
      "objects</w>": 5115,
      "repor": 5116,
      "turns</w>": 5117,
      "dedic": 5118,
      "mission</w>": 5119,
      "indust": 5120,
      "asked</w>": 5121,
      "serving</w>": 5122,
      "guidance</w>": 5123,
      "ongside</w>": 5124,
      "companies</w>": 5125,
      "Le": 5126,
      "ident</w>": 5127,
      "sequence</w>": 5128,
      "factor</w>": 5129,
      "improvement</w>": 5130,
      "Encour": 5131,
      "Welcome</w>": 5132,
      "resid": 5133,
      "recor": 5134,
      "rol": 5135,
      "authenti": 5136,
      "demand</w>": 5137,
      "whenever</w>": 5138,
      "inj": 5139,
      "great</w>": 5140,
      "break</w>": 5141,
      "Sy": 5142,
      "stage</w>": 5143,
      "fer</w>": 5144,
      "expressions</w>": 5145,
      "50</w>": 5146,
      "movement</w>": 5147,
      "children</w>": 5148,
      "eye</w>": 5149,
      "entral</w>": 5150,
      "exist</w>": 5151,
      "Eff": 5152,
      "neur": 5153,
      "elings</w>": 5154,
      "emotions</w>": 5155,
      "tis": 5156,
      "celebr": 5157,
      "prote": 5158,
      "expos": 5159,
      "cover": 5160,
      "spir": 5161,
      "curiosity</w>": 5162,
      "external</w>": 5163,
      "flow</w>": 5164,
      "became</w>": 5165,
      "hair</w>": 5166,
      "Pre": 5167,
      "advoc": 5168,
      "La": 5169,
      "loved</w>": 5170,
      "ections</w>": 5171,
      "hic</w>": 5172,
      "colors</w>": 5173,
      "cos</w>": 5174,
      "vel": 5175,
      "oning</w>": 5176,
      "bot": 5177,
      "acting</w>": 5178,
      "Gi": 5179,
      "neigh": 5180,
      "counter": 5181,
      "event</w>": 5182,
      "price</w>": 5183,
      "Happy</w>": 5184,
      "thought": 5185,
      "Have</w>": 5186,
      "accep": 5187,
      "inherent</w>": 5188,
      "requiring</w>": 5189,
      "Mr</w>": 5190,
      "styles</w>": 5191,
      "turned</w>": 5192,
      "growing</w>": 5193,
      "ster</w>": 5194,
      "ide</w>": 5195,
      "follows</w>": 5196,
      "viol": 5197,
      "Avoid</w>": 5198,
      "creative</w>": 5199,
      "tain": 5200,
      "spa": 5201,
      "ak</w>": 5202,
      "angles</w>": 5203,
      "alge": 5204,
      "accord": 5205,
      "Sp": 5206,
      "``": 5207,
      "damage</w>": 5208,
      "experienced</w>": 5209,
      "ath": 5210,
      "```</w>": 5211,
      "fic</w>": 5212,
      "pay": 5213,
      "dless</w>": 5214,
      "women</w>": 5215,
      "outh</w>": 5216,
      "Tr": 5217,
      "hope</w>": 5218,
      "Then</w>": 5219,
      "eyes</w>": 5220,
      "micro": 5221,
      "ingu": 5222,
      "Maint": 5223,
      "heat</w>": 5224,
      "nect</w>": 5225,
      "modi": 5226,
      "hidden</w>": 5227,
      "integ": 5228,
      "easier</w>": 5229,
      "bud": 5230,
      "ment": 5231,
      "inations</w>": 5232,
      "Comp": 5233,
      "post</w>": 5234,
      "advanc": 5235,
      "capac": 5236,
      "amb": 5237,
      "scri": 5238,
      "deriv": 5239,
      "tionality</w>": 5240,
      "fric": 5241,
      "teach": 5242,
      "demonstrate</w>": 5243,
      "vil": 5244,
      "alongside</w>": 5245,
      "Lear": 5246,
      "redi": 5247,
      "Adv": 5248,
      "ion</w>": 5249,
      "alth</w>": 5250,
      "Bo": 5251,
      "ask</w>": 5252,
      "strain": 5253,
      "guar": 5254,
      "Pr": 5255,
      "patience</w>": 5256,
      "contact</w>": 5257,
      "feelings</w>": 5258,
      "accordingly</w>": 5259,
      "solely</w>": 5260,
      "consequences</w>": 5261,
      "favorite</w>": 5262,
      "Euro": 5263,
      "conven": 5264,
      "Dec": 5265,
      "keeping</w>": 5266,
      "note</w>": 5267,
      "safe</w>": 5268,
      "lity</w>": 5269,
      "genu": 5270,
      "199": 5271,
      "created</w>": 5272,
      "fres": 5273,
      "ingredi": 5274,
      "gender</w>": 5275,
      "Cul": 5276,
      "scenarios</w>": 5277,
      "hands</w>": 5278,
      "holders</w>": 5279,
      "novel</w>": 5280,
      "ket</w>": 5281,
      "($</w>": 5282,
      "played</w>": 5283,
      "Ser": 5284,
      "moment</w>": 5285,
      "temperature</w>": 5286,
      "compli": 5287,
      "units</w>": 5288,
      "osph": 5289,
      "tor": 5290,
      "wards</w>": 5291,
      "educational</w>": 5292,
      "well": 5293,
      "input</w>": 5294,
      "jus": 5295,
      "Practice</w>": 5296,
      "extract</w>": 5297,
      "sustainable</w>": 5298,
      "drawing</w>": 5299,
      "pit": 5300,
      "perio": 5301,
      "five</w>": 5302,
      "fit</w>": 5303,
      "ech</w>": 5304,
      "horiz": 5305,
      "ticul": 5306,
      "sched": 5307,
      "ynom": 5308,
      "ina</w>": 5309,
      "sn": 5310,
      "income</w>": 5311,
      "mind": 5312,
      "ight": 5313,
      "nutri": 5314,
      "parties</w>": 5315,
      "below</w>": 5316,
      "containing</w>": 5317,
      "networks</w>": 5318,
      "tise</w>": 5319,
      "computer</w>": 5320,
      "complexity</w>": 5321,
      "leads</w>": 5322,
      "adi": 5323,
      "arts</w>": 5324,
      "rein": 5325,
      "selecting</w>": 5326,
      "tut": 5327,
      "discussing</w>": 5328,
      "causing</w>": 5329,
      "standard</w>": 5330,
      "icient</w>": 5331,
      "med</w>": 5332,
      "standards</w>": 5333,
      "dedicated</w>": 5334,
      "collective</w>": 5335,
      "limited</w>": 5336,
      "-\\</w>": 5337,
      "iness</w>": 5338,
      "harmon": 5339,
      "rati": 5340,
      "According</w>": 5341,
      "Strateg": 5342,
      "wis": 5343,
      "Such</w>": 5344,
      "thoughts</w>": 5345,
      "manip": 5346,
      "contributing</w>": 5347,
      "molec": 5348,
      "secre": 5349,
      "live</w>": 5350,
      "board</w>": 5351,
      "pt": 5352,
      "_i</w>": 5353,
      "institutions</w>": 5354,
      "tips</w>": 5355,
      "minimize</w>": 5356,
      "gri": 5357,
      "versi": 5358,
      "bring</w>": 5359,
      "beautiful</w>": 5360,
      "simultaneously</w>": 5361,
      "sem": 5362,
      "ata</w>": 5363,
      "advantages</w>": 5364,
      "imag": 5365,
      "brand</w>": 5366,
      "inner</w>": 5367,
      "travel</w>": 5368,
      "objectives</w>": 5369,
      "Tw": 5370,
      "Throughout</w>": 5371,
      "patient</w>": 5372,
      "transl": 5373,
      "pair</w>": 5374,
      "prepar": 5375,
      "dot</w>": 5376,
      "uments</w>": 5377,
      "cause</w>": 5378,
      "talk</w>": 5379,
      "stability</w>": 5380,
      "variable</w>": 5381,
      "ror</w>": 5382,
      "comfortable</w>": 5383,
      "literature</w>": 5384,
      "poses</w>": 5385,
      "tually</w>": 5386,
      "reput": 5387,
      "contribu": 5388,
      "ratic</w>": 5389,
      "Rel": 5390,
      "psych": 5391,
      "initially</w>": 5392,
      "themes</w>": 5393,
      "shes</w>": 5394,
      "fellow</w>": 5395,
      "Sub": 5396,
      "half</w>": 5397,
      "vibr": 5398,
      "discussion</w>": 5399,
      "Utili": 5400,
      "image</w>": 5401,
      "last</w>": 5402,
      "solid</w>": 5403,
      "//</w>": 5404,
      "ian</w>": 5405,
      "asts</w>": 5406,
      "necessit": 5407,
      "Over</w>": 5408,
      "breaking</w>": 5409,
      "solve</w>": 5410,
      "Est": 5411,
      "source</w>": 5412,
      "brow": 5413,
      "holds</w>": 5414,
      "implementing</w>": 5415,
      "ellig": 5416,
      "Christi": 5417,
      "appear</w>": 5418,
      "ange</w>": 5419,
      "dynamic</w>": 5420,
      "thri": 5421,
      "characters</w>": 5422,
      "hic": 5423,
      "entional</w>": 5424,
      "consideration</w>": 5425,
      "corresponding</w>": 5426,
      "couldn</w>": 5427,
      "magical</w>": 5428,
      "His</w>": 5429,
      "calculate</w>": 5430,
      "clo": 5431,
      "scale</w>": 5432,
      "tac": 5433,
      "least</w>": 5434,
      "IV</w>": 5435,
      "dering</w>": 5436,
      "efs</w>": 5437,
      "asp": 5438,
      "Ul": 5439,
      "getting</w>": 5440,
      "tiveness</w>": 5441,
      "\\*</w>": 5442,
      "apping</w>": 5443,
      "soft</w>": 5444,
      "representation</w>": 5445,
      "scientific</w>": 5446,
      "tory</w>": 5447,
      "theoretical</w>": 5448,
      "usage</w>": 5449,
      "sessions</w>": 5450,
      "platform</w>": 5451,
      "math</w>": 5452,
      "cutting</w>": 5453,
      "etic</w>": 5454,
      "depth</w>": 5455,
      "orders</w>": 5456,
      "Examples</w>": 5457,
      "$(</w>": 5458,
      "added</w>": 5459,
      "polynom": 5460,
      "dialogue</w>": 5461,
      "xes</w>": 5462,
      "focused</w>": 5463,
      "lightly</w>": 5464,
      "search</w>": 5465,
      "vr": 5466,
      "rics</w>": 5467,
      "audience</w>": 5468,
      "dealing</w>": 5469,
      "review</w>": 5470,
      "notic": 5471,
      "closely</w>": 5472,
      "ditions</w>": 5473,
      "strong": 5474,
      "conversation</w>": 5475,
      "esthe": 5476,
      "leaving</w>": 5477,
      "video</w>": 5478,
      "reflect</w>": 5479,
      "bing</w>": 5480,
      "promp": 5481,
      "expertise</w>": 5482,
      "ensity</w>": 5483,
      "graph</w>": 5484,
      "improving</w>": 5485,
      "surpri": 5486,
      "mutual</w>": 5487,
      "tries</w>": 5488,
      "tal</w>": 5489,
      "Establi": 5490,
      "Cur": 5491,
      "constrain": 5492,
      "ock</w>": 5493,
      "super": 5494,
      "reson": 5495,
      "capabilities</w>": 5496,
      "reduced</w>": 5497,
      "perspective</w>": 5498,
      "societal</w>": 5499,
      "initiatives</w>": 5500,
      "path</w>": 5501,
      "Sam": 5502,
      "aver": 5503,
      "Explan": 5504,
      "world": 5505,
      "transpa": 5506,
      "giving</w>": 5507,
      "satisfac": 5508,
      "identifying</w>": 5509,
      "forming</w>": 5510,
      "install": 5511,
      "flav": 5512,
      "asn</w>": 5513,
      "pression</w>": 5514,
      "center</w>": 5515,
      "seek</w>": 5516,
      "pen": 5517,
      "evolving</w>": 5518,
      "pping</w>": 5519,
      "parti": 5520,
      "night</w>": 5521,
      "suppl": 5522,
      "ifies</w>": 5523,
      "approximately</w>": 5524,
      "minutes</w>": 5525,
      "foot": 5526,
      "lived</w>": 5527,
      "enter": 5528,
      "exercise</w>": 5529,
      "investment</w>": 5530,
      "Mean": 5531,
      "tiz": 5532,
      "pul": 5533,
      "Bi": 5534,
      "protection</w>": 5535,
      "draw": 5536,
      "Explanation</w>": 5537,
      "roots</w>": 5538,
      "Case</w>": 5539,
      "skill</w>": 5540,
      "movements</w>": 5541,
      "stake": 5542,
      "major</w>": 5543,
      "icity</w>": 5544,
      "powers</w>": 5545,
      "expon": 5546,
      "dur": 5547,
      "III</w>": 5548,
      "Har": 5549,
      "icious</w>": 5550,
      "mon</w>": 5551,
      "respective</w>": 5552,
      "mass</w>": 5553,
      "ded": 5554,
      "concerning</w>": 5555,
      "grow</w>": 5556,
      "Create</w>": 5557,
      "Whe": 5558,
      "took</w>": 5559,
      "emerging</w>": 5560,
      "consul": 5561,
      "equipment</w>": 5562,
      "enance</w>": 5563,
      "laws</w>": 5564,
      "var": 5565,
      "fail": 5566,
      "exists</w>": 5567,
      "promising</w>": 5568,
      "tend</w>": 5569,
      "ger</w>": 5570,
      "annels</w>": 5571,
      "Don</w>": 5572,
      "marily</w>": 5573,
      "ife</w>": 5574,
      "manag": 5575,
      "limitations</w>": 5576,
      "Set</w>": 5577,
      "Firstly</w>": 5578,
      "achieve</w>": 5579,
      "integration</w>": 5580,
      "protect</w>": 5581,
      "worth</w>": 5582,
      "firm</w>": 5583,
      "shapes</w>": 5584,
      "rence</w>": 5585,
      "written</w>": 5586,
      "Cri": 5587,
      "resource</w>": 5588,
      "cool</w>": 5589,
      "ghly</w>": 5590,
      "resistance</w>": 5591,
      "studying</w>": 5592,
      "rit": 5593,
      "sav": 5594,
      "15</w>": 5595,
      "store</w>": 5596,
      "gs</w>": 5597,
      "----</w>": 5598,
      "regularly</w>": 5599,
      "artists</w>": 5600,
      "figure</w>": 5601,
      "ions</w>": 5602,
      "Analysis</w>": 5603,
      "charg": 5604,
      "listening</w>": 5605,
      "30</w>": 5606,
      "clean</w>": 5607,
      "teams</w>": 5608,
      "tast": 5609,
      "books</w>": 5610,
      "em</w>": 5611,
      "migr": 5612,
      "addition</w>": 5613,
      "tude</w>": 5614,
      "geomet": 5615,
      "beaut": 5616,
      "beauty</w>": 5617,
      "network</w>": 5618,
      "cos": 5619,
      "matters</w>": 5620,
      "answer</w>": 5621,
      "Off": 5622,
      "express</w>": 5623,
      "scal": 5624,
      "asking</w>": 5625,
      "assess": 5626,
      "sales</w>": 5627,
      "phil": 5628,
      "primarily</w>": 5629,
      "ap</w>": 5630,
      "behaviors</w>": 5631,
      "surance</w>": 5632,
      "facilitate</w>": 5633,
      "climate</w>": 5634,
      "circumstances</w>": 5635,
      "encomp": 5636,
      "lem": 5637,
      "privacy</w>": 5638,
      "career</w>": 5639,
      "Always</w>": 5640,
      "ares</w>": 5641,
      "ront</w>": 5642,
      "seg": 5643,
      "strength</w>": 5644,
      "technique</w>": 5645,
      "sian</w>": 5646,
      "tack": 5647,
      "anci": 5648,
      "practicing</w>": 5649,
      "infl": 5650,
      "^{": 5651,
      "trying</w>": 5652,
      "realm</w>": 5653,
      "Identify</w>": 5654,
      ":*</w>": 5655,
      "campa": 5656,
      "suggest": 5657,
      "Defin": 5658,
      "Ab": 5659,
      "Up": 5660,
      "manage</w>": 5661,
      "produce</w>": 5662,
      "Ear": 5663,
      "substan": 5664,
      "soon</w>": 5665,
      "sm</w>": 5666,
      "moments</w>": 5667,
      "swe": 5668,
      "Fam": 5669,
      "probability</w>": 5670,
      "World</w>": 5671,
      "lever": 5672,
      "representing</w>": 5673,
      "party</w>": 5674,
      "illi": 5675,
      "else</w>": 5676,
      "enjoy": 5677,
      "creation</w>": 5678,
      "followed</w>": 5679,
      "plans</w>": 5680,
      "shows</w>": 5681,
      "stum": 5682,
      "entations</w>": 5683,
      "advancements</w>": 5684,
      "choosing</w>": 5685,
      "atter": 5686,
      "applied</w>": 5687,
      "benefit</w>": 5688,
      "eral</w>": 5689,
      "ights</w>": 5690,
      "looked</w>": 5691,
      "May": 5692,
      "friendly</w>": 5693,
      "chain</w>": 5694,
      "oud</w>": 5695,
      "restric": 5696,
      "rig": 5697,
      "fosters</w>": 5698,
      "ahead</w>": 5699,
      "blocks</w>": 5700,
      "helping</w>": 5701,
      "direction</w>": 5702,
      "exposure</w>": 5703,
      "effort</w>": 5704,
      "eled</w>": 5705,
      "Del": 5706,
      "seam": 5707,
      "curious</w>": 5708,
      "markets</w>": 5709,
      "gives</w>": 5710,
      "kind</w>": 5711,
      "likely</w>": 5712,
      "possess</w>": 5713,
      "irical</w>": 5714,
      "lood</w>": 5715,
      "recognizing</w>": 5716,
      "highlights</w>": 5717,
      "illing</w>": 5718,
      "fast</w>": 5719,
      "discover</w>": 5720,
      "measure</w>": 5721,
      "dle</w>": 5722,
      "navigating</w>": 5723,
      "responsibility</w>": 5724,
      "characteristics</w>": 5725,
      "background</w>": 5726,
      "ests</w>": 5727,
      "wasn</w>": 5728,
      "loss</w>": 5729,
      "preserving</w>": 5730,
      "student</w>": 5731,
      "mathematics</w>": 5732,
      "knowing</w>": 5733,
      "ourselves</w>": 5734,
      "sequent</w>": 5735,
      "excep": 5736,
      "ounded</w>": 5737,
      "stration</w>": 5738,
      "Meanwhile</w>": 5739,
      "than": 5740,
      "applic": 5741,
      "))</w>": 5742,
      "itig": 5743,
      "ulner": 5744,
      "technological</w>": 5745,
      "Pers": 5746,
      "learly</w>": 5747,
      "becoming</w>": 5748,
      "increases</w>": 5749,
      "interesting</w>": 5750,
      "myst": 5751,
      "gets</w>": 5752,
      "undersc": 5753,
      "satisfaction</w>": 5754,
      "Inv": 5755,
      "acks</w>": 5756,
      "signs</w>": 5757,
      "God</w>": 5758,
      "collection</w>": 5759,
      "Time</w>": 5760,
      "accuracy</w>": 5761,
      "child</w>": 5762,
      "agg": 5763,
      "eria</w>": 5764,
      "excell": 5765,
      "Its</w>": 5766,
      "regulations</w>": 5767,
      "pain</w>": 5768,
      "icing</w>": 5769,
      "notable</w>": 5770,
      "machine</w>": 5771,
      "artis": 5772,
      "Cle": 5773,
      "built</w>": 5774,
      "Au": 5775,
      "Ba": 5776,
      "region</w>": 5777,
      "rement</w>": 5778,
      "eration</w>": 5779,
      "successfully</w>": 5780,
      "sens": 5781,
      "channels</w>": 5782,
      "vehic": 5783,
      "academic</w>": 5784,
      "animals</w>": 5785,
      "encourage</w>": 5786,
      "illustrate</w>": 5787,
      "gen</w>": 5788,
      "choice</w>": 5789,
      "arities</w>": 5790,
      "learners</w>": 5791,
      "My</w>": 5792,
      "familiar</w>": 5793,
      "acknowled": 5794,
      "axis</w>": 5795,
      "dia</w>": 5796,
      "decre": 5797,
      "extra</w>": 5798,
      "je": 5799,
      "driving</w>": 5800,
      "ier</w>": 5801,
      "essive</w>": 5802,
      "ught</w>": 5803,
      "audiences</w>": 5804,
      "participants</w>": 5805,
      "write</w>": 5806,
      "era</w>": 5807,
      "itoring</w>": 5808,
      "archit": 5809,
      "purpose</w>": 5810,
      "iration</w>": 5811,
      "toys</w>": 5812,
      "designs</w>": 5813,
      "prove</w>": 5814,
      "art": 5815,
      "smooth</w>": 5816,
      "integrating</w>": 5817,
      "odes</w>": 5818,
      "sections</w>": 5819,
      "wellbeing</w>": 5820,
      "contex": 5821,
      "limit</w>": 5822,
      "Whether</w>": 5823,
      "ern</w>": 5824,
      "responses</w>": 5825,
      "narratives</w>": 5826,
      "root</w>": 5827,
      "didn</w>": 5828,
      "secure</w>": 5829,
      "Both</w>": 5830,
      "worry</w>": 5831,
      "amm": 5832,
      "stakeholders</w>": 5833,
      "actual</w>": 5834,
      "ensive</w>": 5835,
      "alone</w>": 5836,
      "difficult</w>": 5837,
      "flexibility</w>": 5838,
      "canc": 5839,
      "refin": 5840,
      "entary</w>": 5841,
      "code</w>": 5842,
      "barri": 5843,
      "Appro": 5844,
      "spe": 5845,
      "goes</w>": 5846,
      "circle</w>": 5847,
      "che": 5848,
      "intellig": 5849,
      "connect</w>": 5850,
      "heard</w>": 5851,
      "gained</w>": 5852,
      "leaders</w>": 5853,
      "constraints</w>": 5854,
      "highlighting</w>": 5855,
      "paramet": 5856,
      "knew</w>": 5857,
      "event": 5858,
      "ancy</w>": 5859,
      "date</w>": 5860,
      "trade</w>": 5861,
      "presence</w>": 5862,
      "Equ": 5863,
      "flo": 5864,
      "ordinary</w>": 5865,
      "Timmy</w>": 5866,
      "ument</w>": 5867,
      "famil": 5868,
      "generations</w>": 5869,
      "202": 5870,
      "ingredients</w>": 5871,
      "yields</w>": 5872,
      "xi": 5873,
      "actively</w>": 5874,
      "includes</w>": 5875,
      "define</w>": 5876,
      "efficiently</w>": 5877,
      "marg": 5878,
      "perform</w>": 5879,
      "readers</w>": 5880,
      "testing</w>": 5881,
      "worldwide</w>": 5882,
      "rop": 5883,
      "consistency</w>": 5884,
      "ums</w>": 5885,
      "volume</w>": 5886,
      "path": 5887,
      "dedication</w>": 5888,
      "cogn": 5889,
      "frequently</w>": 5890,
      "yt": 5891,
      "suitable</w>": 5892,
      "vulner": 5893,
      "control": 5894,
      "general</w>": 5895,
      "excit": 5896,
      "ifying</w>": 5897,
      "ign": 5898,
      "longer</w>": 5899,
      "achieving</w>": 5900,
      "encourages</w>": 5901,
      "correct</w>": 5902,
      "justice</w>": 5903,
      "conclu": 5904,
      "program</w>": 5905,
      "handling</w>": 5906,
      "integral</w>": 5907,
      "que</w>": 5908,
      "mid": 5909,
      "stronger</w>": 5910,
      "nel</w>": 5911,
      "ression</w>": 5912,
      "tutorial</w>": 5913,
      "uries</w>": 5914,
      "leadership</w>": 5915,
      "Sc": 5916,
      "bul": 5917,
      "cultures</w>": 5918,
      "graphic</w>": 5919,
      "labor</w>": 5920,
      "website</w>": 5921,
      "genuine</w>": 5922,
      "internal</w>": 5923,
      "promise</w>": 5924,
      "tless</w>": 5925,
      "whereas</w>": 5926,
      ",\\</w>": 5927,
      "magne": 5928,
      "curve</w>": 5929,
      "milli": 5930,
      "processing</w>": 5931,
      "repl": 5932,
      "equals</w>": 5933,
      "crit": 5934,
      "transformation</w>": 5935,
      "ured</w>": 5936,
      "aesthe": 5937,
      "relations</w>": 5938,
      "commod": 5939,
      "supporting</w>": 5940,
      "actually</w>": 5941,
      "Ultimately</w>": 5942,
      "ogle</w>": 5943,
      "accurately</w>": 5944,
      "Emb": 5945,
      "At": 5946,
      "nment</w>": 5947,
      "noticed</w>": 5948,
      "bir": 5949,
      "discovery</w>": 5950,
      "citiz": 5951,
      "subsequent</w>": 5952,
      "exclu": 5953,
      "algorithms</w>": 5954,
      "countries</w>": 5955,
      "stic": 5956,
      "Fo": 5957,
      "appearance</w>": 5958,
      "See": 5959,
      "config": 5960,
      "Typ": 5961,
      "scr": 5962,
      "prepa": 5963,
      "determining</w>": 5964,
      "presented</w>": 5965,
      "prioritize</w>": 5966,
      "acies</w>": 5967,
      "object</w>": 5968,
      "manufacturing</w>": 5969,
      "impacts</w>": 5970,
      "ky</w>": 5971,
      "head": 5972,
      "taining</w>": 5973,
      ")=</w>": 5974,
      "third</w>": 5975,
      "ranging</w>": 5976,
      "exchange</w>": 5977,
      "taken</w>": 5978,
      "notice</w>": 5979,
      "Loc": 5980,
      "feeling</w>": 5981,
      "100</w>": 5982,
      "option</w>": 5983,
      "whose</w>": 5984,
      "offered</w>": 5985,
      "periods</w>": 5986,
      "cep": 5987,
      "ticle</w>": 5988,
      "rise</w>": 5989,
      "25</w>": 5990,
      "capacity</w>": 5991,
      "mitig": 5992,
      "she": 5993,
      "instr": 5994,
      "tribut": 5995,
      "population</w>": 5996,
      "car</w>": 5997,
      "component</w>": 5998,
      "exercises</w>": 5999,
      "affect</w>": 6000,
      "facing</w>": 6001,
      "gently</w>": 6002,
      "post": 6003,
      "press</w>": 6004,
      "Fl": 6005,
      "Cor": 6006,
      "yield</w>": 6007,
      "height</w>": 6008,
      "uti": 6009,
      "connecting</w>": 6010,
      "draw</w>": 6011,
      "pet</w>": 6012,
      "considerations</w>": 6013,
      "white</w>": 6014,
      "cover</w>": 6015,
      "oil</w>": 6016,
      "partial</w>": 6017,
      "htt": 6018,
      "arrow</w>": 6019,
      "parents</w>": 6020,
      "clin": 6021,
      "aste</w>": 6022,
      "dx</w>": 6023,
      "cell</w>": 6024,
      "output</w>": 6025,
      "slightly</w>": 6026,
      "stream": 6027,
      "thesis</w>": 6028,
      "assess</w>": 6029,
      "procedures</w>": 6030,
      "regardless</w>": 6031,
      "device</w>": 6032,
      "combining</w>": 6033,
      "country</w>": 6034,
      "vs</w>": 6035,
      "Afric": 6036,
      "revol": 6037,
      "_0</w>": 6038,
      "log</w>": 6039,
      "dest": 6040,
      "competition</w>": 6041,
      "therapy</w>": 6042,
      "demands</w>": 6043,
      "possibilities</w>": 6044,
      "beliefs</w>": 6045,
      "AI</w>": 6046,
      "ees</w>": 6047,
      "stac": 6048,
      "indeed</w>": 6049,
      "$$\\</w>": 6050,
      "frameworks</w>": 6051,
      "patients</w>": 6052,
      "propor": 6053,
      "central</w>": 6054,
      "constit": 6055,
      "populations</w>": 6056,
      "lock</w>": 6057,
      "und": 6058,
      "performing</w>": 6059,
      "scholars</w>": 6060,
      "house</w>": 6061,
      "infin": 6062,
      "element</w>": 6063,
      "detail": 6064,
      "ricul": 6065,
      "Dr</w>": 6066,
      "nur": 6067,
      "generate</w>": 6068,
      "Bal": 6069,
      "practical</w>": 6070,
      "://</w>": 6071,
      "species</w>": 6072,
      "plants</w>": 6073,
      "strengths</w>": 6074,
      "relative</w>": 6075,
      "clients</w>": 6076,
      "sufficient</w>": 6077,
      "Google</w>": 6078,
      "page</w>": 6079,
      "task</w>": 6080,
      "affor": 6081,
      "reven": 6082,
      "bodies</w>": 6083,
      "remaining</w>": 6084,
      "Char": 6085,
      "concentr": 6086,
      "cdot</w>": 6087,
      "ushing</w>": 6088,
      "ography</w>": 6089,
      "return</w>": 6090,
      "ulate</w>": 6091,
      "eply</w>": 6092,
      "consistently</w>": 6093,
      "fresh</w>": 6094,
      "arith": 6095,
      "ville</w>": 6096,
      "denotes</w>": 6097,
      "makers</w>": 6098,
      "roc": 6099,
      ")(</w>": 6100,
      "mathbf</w>": 6101,
      "stands</w>": 6102,
      "competitive</w>": 6103,
      "Te": 6104,
      "00": 6105,
      "ounts</w>": 6106,
      "pi</w>": 6107,
      "osoph": 6108,
      "eding</w>": 6109,
      "contributes</w>": 6110,
      "prices</w>": 6111,
      "partner": 6112,
      "veg": 6113,
      "Together</w>": 6114,
      "status</w>": 6115,
      "critically</w>": 6116,
      "encounter</w>": 6117,
      "developments</w>": 6118,
      "reaching</w>": 6119,
      "explored</w>": 6120,
      "varying</w>": 6121,
      "apart</w>": 6122,
      "compati": 6123,
      "regions</w>": 6124,
      "rought</w>": 6125,
      "consumers</w>": 6126,
      "wit": 6127,
      "debates</w>": 6128,
      "sional</w>": 6129,
      "Data</w>": 6130,
      "evaluating</w>": 6131,
      "engineering</w>": 6132,
      "vr6</w>": 6133,
      "bon</w>": 6134,
      "Applying</w>": 6135,
      "vibrant</w>": 6136,
      "deeply</w>": 6137,
      "already</w>": 6138,
      "vast</w>": 6139,
      "ellec": 6140,
      "opin": 6141,
      "bled</w>": 6142,
      "Nor": 6143,
      "message</w>": 6144,
      "etary</w>": 6145,
      "contributions</w>": 6146,
      "inequality</w>": 6147,
      "player</w>": 6148,
      "politics</w>": 6149,
      "Building</w>": 6150,
      "profound</w>": 6151,
      "smoo": 6152,
      "condition</w>": 6153,
      "warm</w>": 6154,
      "incredi": 6155,
      "life": 6156,
      "bles</w>": 6157,
      "other": 6158,
      "evaluate</w>": 6159,
      "diving</w>": 6160,
      "Exper": 6161,
      "spar": 6162,
      "represented</w>": 6163,
      "Cal": 6164,
      "investigation</w>": 6165,
      "quad</w>": 6166,
      "icated</w>": 6167,
      "cular</w>": 6168,
      "seen</w>": 6169,
      "oid": 6170,
      "ju": 6171,
      "recognize</w>": 6172,
      "ideal</w>": 6173,
      "urb": 6174,
      "maintenance</w>": 6175,
      "domin": 6176,
      "11</w>": 6177,
      "late</w>": 6178,
      "sensitive</w>": 6179,
      "tom</w>": 6180,
      "timate</w>": 6181,
      "democ": 6182,
      "screen</w>": 6183,
      "average</w>": 6184,
      "pack": 6185,
      "enhanced</w>": 6186,
      "subject</w>": 6187,
      "ti</w>": 6188,
      "sub</w>": 6189,
      "maximum</w>": 6190,
      "reduces</w>": 6191,
      "interaction</w>": 6192,
      "affecting</w>": 6193,
      "selection</w>": 6194,
      "sli": 6195,
      "blood</w>": 6196,
      "Deter": 6197,
      "won</w>": 6198,
      "brid": 6199,
      "Organ": 6200,
      "air": 6201,
      "bit": 6202,
      "wind": 6203,
      "immer": 6204,
      "candid": 6205,
      "pressing</w>": 6206,
      "running</w>": 6207,
      ")\\</w>": 6208,
      "Study</w>": 6209,
      "United</w>": 6210,
      "Regularly</w>": 6211,
      "technical</w>": 6212,
      "eties</w>": 6213,
      "theta</w>": 6214,
      "bust": 6215,
      "feature</w>": 6216,
      "haps</w>": 6217,
      "religious</w>": 6218,
      "caused</w>": 6219,
      "door</w>": 6220,
      "places</w>": 6221,
      "load</w>": 6222,
      "Look</w>": 6223,
      "categories</w>": 6224,
      "atm": 6225,
      "tap": 6226,
      "vic": 6227,
      "countless</w>": 6228,
      "specialized</w>": 6229,
      "reflection</w>": 6230,
      "feat": 6231,
      "Jamie</w>": 6232,
      "ult</w>": 6233,
      "evolution</w>": 6234,
      "domain</w>": 6235,
      "bas": 6236,
      "eries</w>": 6237,
      "sustainability</w>": 6238,
      "email</w>": 6239,
      "az": 6240,
      "thorough</w>": 6241,
      "thly</w>": 6242,
      "functional</w>": 6243,
      "governing</w>": 6244,
      "We": 6245,
      "conventional</w>": 6246,
      "images</w>": 6247,
      "placement</w>": 6248,
      "alle": 6249,
      "Earth</w>": 6250,
      "ogen": 6251,
      "omin": 6252,
      "visit</w>": 6253,
      "lasting</w>": 6254,
      "soph": 6255,
      "wait</w>": 6256,
      "vering</w>": 6257,
      "com</w>": 6258,
      "utilizing</w>": 6259,
      "architec": 6260,
      "happens</w>": 6261,
      "fications</w>": 6262,
      "wi": 6263,
      "trust": 6264,
      "admini": 6265,
      "ials</w>": 6266,
      "Refl": 6267,
      "tract</w>": 6268,
      "ified</w>": 6269,
      "dimensions</w>": 6270,
      "CO": 6271,
      "minimizing</w>": 6272,
      "arise</w>": 6273,
      "oral</w>": 6274,
      "valent</w>": 6275,
      "creates</w>": 6276,
      "century</w>": 6277,
      "stract</w>": 6278,
      "norms</w>": 6279,
      "',</w>": 6280,
      "spiritu": 6281,
      "definition</w>": 6282,
      "families</w>": 6283,
      "iter": 6284,
      "activ": 6285,
      "joy</w>": 6286,
      "Ass": 6287,
      "obtain</w>": 6288,
      "remov": 6289,
      "valid": 6290,
      "istic": 6291,
      "ante": 6292,
      "saw</w>": 6293,
      "file</w>": 6294,
      "scho": 6295,
      "ior</w>": 6296,
      "ome": 6297,
      "limits</w>": 6298,
      "sus</w>": 6299,
      "Social</w>": 6300,
      "toy</w>": 6301,
      "tiny</w>": 6302,
      "enly</w>": 6303,
      "whel": 6304,
      "memory</w>": 6305,
      "phone</w>": 6306,
      "rigu": 6307,
      "select</w>": 6308,
      "located</w>": 6309,
      "private</w>": 6310,
      "anxi": 6311,
      "198": 6312,
      "60</w>": 6313,
      "assistance</w>": 6314,
      "hypo": 6315,
      "ler</w>": 6316,
      "Max</w>": 6317,
      "tell</w>": 6318,
      "independent</w>": 6319,
      "comprehension</w>": 6320,
      "oughly</w>": 6321,
      "vent": 6322,
      "rich": 6323,
      "persist": 6324,
      "enhances</w>": 6325,
      "sophistic": 6326,
      "syst": 6327,
      "To": 6328,
      "accommod": 6329,
      "Given</w>": 6330,
      "supply</w>": 6331,
      "ils</w>": 6332,
      "walk</w>": 6333,
      "phenomena</w>": 6334,
      "sports</w>": 6335,
      "nego": 6336,
      "Se": 6337,
      "infra": 6338,
      "negoti": 6339,
      "examination</w>": 6340,
      "zation</w>": 6341,
      "ags</w>": 6342,
      "functionality</w>": 6343,
      "demonstrates</w>": 6344,
      "turning</w>": 6345,
      "consumption</w>": 6346,
      "Meth": 6347,
      "smar": 6348,
      "previously</w>": 6349,
      "qq": 6350,
      "stood</w>": 6351,
      "layers</w>": 6352,
      "artistic</w>": 6353,
      "expand</w>": 6354,
      "mer</w>": 6355,
      "national</w>": 6356,
      "separate</w>": 6357,
      "bio": 6358,
      "}(</w>": 6359,
      "iles</w>": 6360,
      "six</w>": 6361,
      "storage</w>": 6362,
      "Integr": 6363,
      "Pe": 6364,
      "lessly</w>": 6365,
      "distribut": 6366,
      "meeting</w>": 6367,
      "mathbb</w>": 6368,
      "Provid": 6369,
      "scientists</w>": 6370,
      "months</w>": 6371,
      "tric</w>": 6372,
      "sample</w>": 6373,
      "amming</w>": 6374,
      "pairs</w>": 6375,
      "receive</w>": 6376,
      "Sm": 6377,
      "craft</w>": 6378,
      "ab</w>": 6379,
      "https</w>": 6380,
      "messages</w>": 6381,
      "{(</w>": 6382,
      "green</w>": 6383,
      "absor": 6384,
      "explan": 6385,
      "eag": 6386,
      "Compl": 6387,
      "combined</w>": 6388,
      "brought</w>": 6389,
      "blue</w>": 6390,
      "construction</w>": 6391,
      "ucle": 6392,
      "Benny</w>": 6393,
      "transportation</w>": 6394,
      "errors</w>": 6395,
      "statement</w>": 6396,
      "web</w>": 6397,
      "employed</w>": 6398,
      "Educ": 6399,
      "secon": 6400,
      "Foc": 6401,
      "sounds</w>": 6402,
      "adequ": 6403,
      "quite</w>": 6404,
      "normal</w>": 6405,
      "extensive</w>": 6406,
      "idi": 6407,
      "elim": 6408,
      "version</w>": 6409,
      "transparency</w>": 6410,
      "Chapter</w>": 6411,
      "chapter</w>": 6412,
      "substantial</w>": 6413,
      "easily</w>": 6414,
      "tax</w>": 6415,
      "2x</w>": 6416,
      "run</w>": 6417,
      "gree</w>": 6418,
      "reality</w>": 6419,
      "Ver": 6420,
      "atmosph": 6421,
      "detail</w>": 6422,
      "atically</w>": 6423,
      "occur</w>": 6424,
      "arily</w>": 6425,
      "seemed</w>": 6426,
      "fair</w>": 6427,
      "Fi": 6428,
      "philosoph": 6429,
      "passion</w>": 6430,
      "ram": 6431,
      "resolution</w>": 6432,
      "Sur": 6433,
      "vers</w>": 6434,
      "arize</w>": 6435,
      "introduce</w>": 6436,
      "bonds</w>": 6437,
      "charge</w>": 6438,
      "pattern</w>": 6439,
      "summary</w>": 6440,
      "explic": 6441,
      "Stay</w>": 6442,
      "argue</w>": 6443,
      "ak": 6444,
      "Is</w>": 6445,
      "developed</w>": 6446,
      "horizon": 6447,
      "ane</w>": 6448,
      "Rep": 6449,
      "lack</w>": 6450,
      "routine</w>": 6451,
      "Collabor": 6452,
      "employing</w>": 6453,
      "atti": 6454,
      "datas": 6455,
      "speaking</w>": 6456,
      "industries</w>": 6457,
      "No": 6458,
      "intellec": 6459,
      "ease</w>": 6460,
      "employment</w>": 6461,
      "monitoring</w>": 6462,
      "Design</w>": 6463,
      "qual": 6464,
      "rimin": 6465,
      "records</w>": 6466,
      "intrigu": 6467,
      "join</w>": 6468,
      "uting</w>": 6469,
      "harm": 6470,
      "America</w>": 6471,
      "relax": 6472,
      "barriers</w>": 6473,
      "raw</w>": 6474,
      "Mul": 6475,
      "instances</w>": 6476,
      "assign": 6477,
      "adhe": 6478,
      "guarante": 6479,
      "ancient</w>": 6480,
      "Life</w>": 6481,
      "article</w>": 6482,
      "usually</w>": 6483,
      "anning</w>": 6484,
      "tition": 6485,
      "hun": 6486,
      "ptoms</w>": 6487,
      "intelligence</w>": 6488,
      "empirical</w>": 6489,
      "tices</w>": 6490,
      "itors</w>": 6491,
      "red": 6492,
      "niche</w>": 6493,
      "investing</w>": 6494,
      "degree</w>": 6495,
      "ification</w>": 6496,
      "reliable</w>": 6497,
      "merely</w>": 6498,
      "appoint": 6499,
      "demonstrated</w>": 6500,
      "considered</w>": 6501,
      "incorporate</w>": 6502,
      "entre": 6503,
      "virtual</w>": 6504,
      "consumer</w>": 6505,
      "voice</w>": 6506,
      "habits</w>": 6507,
      "help": 6508,
      "Import": 6509,
      "otherwise</w>": 6510,
      "derived</w>": 6511,
      "\\(</w>": 6512,
      "anyone</w>": 6513,
      "waste</w>": 6514,
      "elihood</w>": 6515,
      "Med": 6516,
      "conveni": 6517,
      "determination</w>": 6518,
      "sleep</w>": 6519,
      "infrastructure</w>": 6520,
      "cooking</w>": 6521,
      "}{\\</w>": 6522,
      "integrity</w>": 6523,
      "credit</w>": 6524,
      "versati": 6525,
      "hard": 6526,
      "sition</w>": 6527,
      "qualities</w>": 6528,
      "cus": 6529,
      "fulness</w>": 6530,
      "entrepre": 6531,
      "elev": 6532,
      "disease</w>": 6533,
      "encouraging</w>": 6534,
      "regional</w>": 6535,
      "traditions</w>": 6536,
      "Ge": 6537,
      "discrimin": 6538,
      "believ": 6539,
      "enter</w>": 6540,
      "mastering</w>": 6541,
      "dry</w>": 6542,
      "sia</w>": 6543,
      "really</w>": 6544,
      "bran": 6545,
      "igns</w>": 6546,
      "operation</w>": 6547,
      "grav": 6548,
      "figures</w>": 6549,
      "near": 6550,
      "chemical</w>": 6551,
      "calculations</w>": 6552,
      "Cap": 6553,
      "disru": 6554,
      "owers</w>": 6555,
      "stim": 6556,
      "equipped</w>": 6557,
      "conflicts</w>": 6558,
      "ghter</w>": 6559,
      "perp": 6560,
      "Maintain</w>": 6561,
      "attribut": 6562,
      "+\\</w>": 6563,
      "fact</w>": 6564,
      "Encourage</w>": 6565,
      "physics</w>": 6566,
      "overwhel": 6567,
      "stone</w>": 6568,
      "locate</w>": 6569,
      "oppos": 6570,
      "frequency</w>": 6571,
      "Bri": 6572,
      "ama": 6573,
      "chances</w>": 6574,
      "strength": 6575,
      "welry</w>": 6576,
      "isol": 6577,
      "productivity</w>": 6578,
      "assumptions</w>": 6579,
      "advice</w>": 6580,
      "explained</w>": 6581,
      "Start</w>": 6582,
      "anity</w>": 6583,
      "unch</w>": 6584,
      "chi": 6585,
      "alty</w>": 6586,
      ".'</w>": 6587,
      "alternatives</w>": 6588,
      "essed</w>": 6589,
      "explo": 6590,
      "ups</w>": 6591,
      "journ": 6592,
      "polynomial</w>": 6593,
      "demonstrating</w>": 6594,
      "avoid": 6595,
      "straight</w>": 6596,
      "ture": 6597,
      "commer": 6598,
      "emerged</w>": 6599,
      "anything</w>": 6600,
      "transm": 6601,
      "mob": 6602,
      "discussed</w>": 6603,
      "waiting</w>": 6604,
      "Recogn": 6605,
      "news</w>": 6606,
      "recognition</w>": 6607,
      "otyp": 6608,
      "skill": 6609,
      "waves</w>": 6610,
      "shops</w>": 6611,
      "essibility</w>": 6612,
      "imal</w>": 6613,
      "immediately</w>": 6614,
      "iction</w>": 6615,
      "chan": 6616,
      "excessive</w>": 6617,
      "characterized</w>": 6618,
      "emer": 6619,
      "wisdom</w>": 6620,
      "regulatory</w>": 6621,
      "college</w>": 6622,
      "layer</w>": 6623,
      "Add": 6624,
      "Her</w>": 6625,
      "Real</w>": 6626,
      "shift</w>": 6627,
      "ware</w>": 6628,
      "compelling</w>": 6629,
      "fab": 6630,
      "may": 6631,
      "communicate</w>": 6632,
      "lu": 6633,
      "lov": 6634,
      "criteria</w>": 6635,
      "allowed</w>": 6636,
      "tension</w>": 6637,
      "abol": 6638,
      "Recent</w>": 6639,
      "derivative</w>": 6640,
      "cleaning</w>": 6641,
      "budget</w>": 6642,
      "prime</w>": 6643,
      "cognitive</w>": 6644,
      "Many</w>": 6645,
      "magn": 6646,
      "Proc": 6647,
      "moun": 6648,
      "NA</w>": 6649,
      "locations</w>": 6650,
      "'.</w>": 6651,
      "puzz": 6652,
      "obstac": 6653,
      "nearby</w>": 6654,
      "weather</w>": 6655,
      "spent</w>": 6656,
      "osy": 6657,
      "With": 6658,
      "Chec": 6659,
      "engaged</w>": 6660,
      "ticism</w>": 6661,
      "qui": 6662,
      "configur": 6663,
      "dance</w>": 6664,
      "rain</w>": 6665,
      "random</w>": 6666,
      "Bre": 6667,
      "wear</w>": 6668,
      "introduced</w>": 6669,
      "fair": 6670,
      "faster</w>": 6671,
      "adjust</w>": 6672,
      "ution": 6673,
      "likelihood</w>": 6674,
      "fem": 6675,
      "spread</w>": 6676,
      "staying</w>": 6677,
      "practition": 6678,
      "acknowledging</w>": 6679,
      "tured</w>": 6680,
      "Fol": 6681,
      "sively</w>": 6682,
      "Strategies</w>": 6683,
      "lined</w>": 6684,
      "nuanced</w>": 6685,
      "pac": 6686,
      "effectiveness</w>": 6687,
      "reactions</w>": 6688,
      "meticul": 6689,
      "quad": 6690,
      "harm</w>": 6691,
      "absol": 6692,
      "eventually</w>": 6693,
      "goods</w>": 6694,
      "gas</w>": 6695,
      "met</w>": 6696,
      "expressed</w>": 6697,
      "Mark": 6698,
      "prepared</w>": 6699,
      "immun": 6700,
      "formed</w>": 6701,
      "ift</w>": 6702,
      "mist": 6703,
      "John</w>": 6704,
      "websites</w>": 6705,
      "aking</w>": 6706,
      "lish</w>": 6707,
      "mere</w>": 6708,
      "symmet": 6709,
      "renew": 6710,
      "insight</w>": 6711,
      "helpful</w>": 6712,
      "anxiety</w>": 6713,
      "double</w>": 6714,
      "vectors</w>": 6715,
      "Select</w>": 6716,
      "dru": 6717,
      "ather</w>": 6718,
      "}^{</w>": 6719,
      "designing</w>": 6720,
      ".$$</w>": 6721,
      "Out": 6722,
      "reveal</w>": 6723,
      "attrac": 6724,
      "impres": 6725,
      "&=</w>": 6726,
      "colon": 6727,
      "Experim": 6728,
      "extrem": 6729,
      "purposes</w>": 6730,
      "tests</w>": 6731,
      "continues</w>": 6732,
      "paint": 6733,
      "Navig": 6734,
      "belong": 6735,
      "inated</w>": 6736,
      "shifts</w>": 6737,
      "Non": 6738,
      "ecosy": 6739,
      "percep": 6740,
      "poll": 6741,
      "Uni": 6742,
      "Jap": 6743,
      "backs</w>": 6744,
      ");</w>": 6745,
      "accel": 6746,
      "employees</w>": 6747,
      "16</w>": 6748,
      "Evalu": 6749,
      "animal</w>": 6750,
      "pharm": 6751,
      "conserv": 6752,
      "Emp": 6753,
      "$)</w>": 6754,
      "occurs</w>": 6755,
      "emphasizing</w>": 6756,
      "Pres": 6757,
      "precise</w>": 6758,
      "conflict</w>": 6759,
      "save</w>": 6760,
      "promin": 6761,
      "ible</w>": 6762,
      "chance</w>": 6763,
      "embark</w>": 6764,
      "wil": 6765,
      "bar</w>": 6766,
      "Take</w>": 6767,
      "vil</w>": 6768,
      "thoughtful</w>": 6769,
      "oot</w>": 6770,
      "implementation</w>": 6771,
      "liqu": 6772,
      "cing</w>": 6773,
      "Famili": 6774,
      "kids</w>": 6775,
      "aint</w>": 6776,
      "mic</w>": 6777,
      "Even</w>": 6778,
      "ff</w>": 6779,
      "improvements</w>": 6780,
      "diagn": 6781,
      "States</w>": 6782,
      "ean</w>": 6783,
      "excellent</w>": 6784,
      "captiv": 6785,
      "ission</w>": 6786,
      "ello</w>": 6787,
      "Sci": 6788,
      "uncer": 6789,
      "maximize</w>": 6790,
      "heavy</w>": 6791,
      "cooper": 6792,
      "ponents</w>": 6793,
      "}}</w>": 6794,
      "ende": 6795,
      "magic</w>": 6796,
      "gradually</w>": 6797,
      "app</w>": 6798,
      "topic</w>": 6799,
      "aren</w>": 6800,
      "operating</w>": 6801,
      "heavily</w>": 6802,
      "presents</w>": 6803,
      "Development</w>": 6804,
      "symptoms</w>": 6805,
      "went</w>": 6806,
      "essible</w>": 6807,
      "alph": 6808,
      "Prof": 6809,
      "scenario</w>": 6810,
      "idly</w>": 6811,
      "rapid</w>": 6812,
      "release</w>": 6813,
      "Exc": 6814,
      "appeal</w>": 6815,
      "prefer": 6816,
      "leave</w>": 6817,
      "front</w>": 6818,
      "akes</w>": 6819,
      "excitement</w>": 6820,
      "contexts</w>": 6821,
      "ori": 6822,
      "intric": 6823,
      "omic</w>": 6824,
      "ocity</w>": 6825,
      "observed</w>": 6826,
      "effect</w>": 6827,
      "Power</w>": 6828,
      "Some": 6829,
      "iciency</w>": 6830,
      "schools</w>": 6831,
      "providers</w>": 6832,
      "integer</w>": 6833,
      "highly</w>": 6834,
      "feet</w>": 6835,
      "pay</w>": 6836,
      "helped</w>": 6837,
      "manufacture": 6838,
      "tackle</w>": 6839,
      "voc": 6840,
      "inspire</w>": 6841,
      "neighb": 6842,
      "Is": 6843,
      "plant</w>": 6844,
      "sac": 6845,
      "recommend": 6846,
      "divide</w>": 6847,
      "electric</w>": 6848,
      "Common</w>": 6849,
      "Ro": 6850,
      "variations</w>": 6851,
      "SE": 6852,
      "match</w>": 6853,
      "Understand</w>": 6854,
      "analyses</w>": 6855,
      "fall</w>": 6856,
      "Num": 6857,
      "held</w>": 6858,
      "remark": 6859,
      "Two</w>": 6860,
      "grounds</w>": 6861,
      "got</w>": 6862,
      "ouse</w>": 6863,
      "2018</w>": 6864,
      "denomin": 6865,
      "practitioners</w>": 6866,
      "click</w>": 6867,
      "anticip": 6868,
      "piv": 6869,
      "lost</w>": 6870,
      "drive</w>": 6871,
      "Tur": 6872,
      "particles</w>": 6873,
      "affected</w>": 6874,
      "veget": 6875,
      "freed": 6876,
      "clearly</w>": 6877,
      "ew</w>": 6878,
      "loy": 6879,
      "advantage</w>": 6880,
      "reflecting</w>": 6881,
      "Revi": 6882,
      "looks</w>": 6883,
      "percei": 6884,
      "files</w>": 6885,
      "sizes</w>": 6886,
      "formal</w>": 6887,
      "centered</w>": 6888,
      "updates</w>": 6889,
      "algebra": 6890,
      "happened</w>": 6891,
      "causes</w>": 6892,
      "traff": 6893,
      "Focus</w>": 6894,
      "unity</w>": 6895,
      "mel": 6896,
      "aceu": 6897,
      "Effective</w>": 6898,
      "error</w>": 6899,
      "useful</w>": 6900,
      "carbon</w>": 6901,
      "instructions</w>": 6902,
      "determined</w>": 6903,
      "picture</w>": 6904,
      "positively</w>": 6905,
      "fear</w>": 6906,
      "threats</w>": 6907,
      "tering</w>": 6908,
      "triangle</w>": 6909,
      "intervention</w>": 6910,
      "Min": 6911,
      "citizens</w>": 6912,
      "sex": 6913,
      "inspired</w>": 6914,
      "method": 6915,
      "colum": 6916,
      "----------------------------": 6917,
      "prior</w>": 6918,
      "doors</w>": 6919,
      "falls</w>": 6920,
      "spo": 6921,
      "pra": 6922,
      "statistical</w>": 6923,
      "prospec": 6924,
      "complicated</w>": 6925,
      "stages</w>": 6926,
      "ytelling</w>": 6927,
      "influencing</w>": 6928,
      "bottom</w>": 6929,
      "bin": 6930,
      "gests</w>": 6931,
      "confid": 6932,
      "memor": 6933,
      "ete</w>": 6934,
      "veness</w>": 6935,
      "obstacles</w>": 6936,
      "intellectual</w>": 6937,
      "mix": 6938,
      "black</w>": 6939,
      "yers</w>": 6940,
      "Trans": 6941,
      "gent": 6942,
      "eat</w>": 6943,
      "suggests</w>": 6944,
      "ago</w>": 6945,
      "opening</w>": 6946,
      "bed": 6947,
      "consci": 6948,
      "compos": 6949,
      "endeav": 6950,
      "contain</w>": 6951,
      "prec": 6952,
      "infty</w>": 6953,
      "tissu": 6954,
      "participation</w>": 6955,
      "yer</w>": 6956,
      "tree</w>": 6957,
      "Cont": 6958,
      "magnetic</w>": 6959,
      "fusion</w>": 6960,
      "thoroughly</w>": 6961,
      "intricacies</w>": 6962,
      "finally</w>": 6963,
      "survi": 6964,
      "changed</w>": 6965,
      "marks</w>": 6966,
      "Europe": 6967,
      "wish</w>": 6968,
      "sophisticated</w>": 6969,
      "utilize</w>": 6970,
      "Diff": 6971,
      "Leg": 6972,
      "Br": 6973,
      "remarkable</w>": 6974,
      "arm</w>": 6975,
      "denly</w>": 6976,
      "chron": 6977,
      "sent": 6978,
      "Fri": 6979,
      "Challeng": 6980,
      "accounts</w>": 6981,
      "hydro": 6982,
      "stret": 6983,
      "entrepreneur": 6984,
      "Develop</w>": 6985,
      "bustling</w>": 6986,
      "nucle": 6987,
      "eable</w>": 6988,
      "rently</w>": 6989,
      "exhibit</w>": 6990,
      "fish</w>": 6991,
      "framework</w>": 6992,
      "phase</w>": 6993,
      "filling</w>": 6994,
      "Management</w>": 6995,
      "mly</w>": 6996,
      "nuances</w>": 6997,
      "crow": 6998,
      "brings</w>": 6999,
      "}$.</w>": 7000,
      "corner</w>": 7001,
      "generation</w>": 7002,
      "crafting</w>": 7003,
      "No</w>": 7004,
      "landscapes</w>": 7005,
      "generated</w>": 7006,
      "Not</w>": 7007,
      "observe</w>": 7008,
      "establishing</w>": 7009,
      "bes</w>": 7010,
      "Learning</w>": 7011,
      "Serv": 7012,
      "Mi": 7013,
      "employ</w>": 7014,
      "taint": 7015,
      "lie</w>": 7016,
      "Dem": 7017,
      "urban</w>": 7018,
      "capital</w>": 7019,
      "aid</w>": 7020,
      "capture</w>": 7021,
      "powerment</w>": 7022,
      "amazing</w>": 7023,
      "break": 7024,
      "sent</w>": 7025,
      "accessible</w>": 7026,
      "Overview</w>": 7027,
      "rapidly</w>": 7028,
      "credi": 7029,
      "thr": 7030,
      "degre": 7031,
      "owly</w>": 7032,
      "onate</w>": 7033,
      "warr": 7034,
      "}$$</w>": 7035,
      "evaluation</w>": 7036,
      "Imp": 7037,
      "insurance</w>": 7038,
      "High</w>": 7039,
      "stumbled</w>": 7040,
      "forcement</w>": 7041,
      "Add</w>": 7042,
      "adm": 7043,
      "slope</w>": 7044,
      "surfaces</w>": 7045,
      "jum": 7046,
      "maybe</w>": 7047,
      "Share</w>": 7048,
      "Think</w>": 7049,
      "fine</w>": 7050,
      "adaptability</w>": 7051,
      "promotes</w>": 7052,
      "gras": 7053,
      "herit": 7054,
      "Discus": 7055,
      "inates</w>": 7056,
      "inspiration</w>": 7057,
      "rational</w>": 7058,
      "notes</w>": 7059,
      "balanced</w>": 7060,
      "puts</w>": 7061,
      "differenti": 7062,
      "assion</w>": 7063,
      "jewelry</w>": 7064,
      "rit</w>": 7065,
      "degrees</w>": 7066,
      "schem": 7067,
      "mas": 7068,
      "interval</w>": 7069,
      "embrace</w>": 7070,
      "Note</w>": 7071,
      "agreed</w>": 7072,
      "weeks</w>": 7073,
      "Busin": 7074,
      "teaching</w>": 7075,
      "organizational</w>": 7076,
      "vals</w>": 7077,
      "ek</w>": 7078,
      "----------</w>": 7079,
      "fing": 7080,
      "estions</w>": 7081,
      "ults</w>": 7082,
      "mal": 7083,
      "imself</w>": 7084,
      "lation</w>": 7085,
      "ced</w>": 7086,
      "amounts</w>": 7087,
      "Thom": 7088,
      "appears</w>": 7089,
      "Coun": 7090,
      "Establish</w>": 7091,
      "Hello</w>": 7092,
      "campaigns</w>": 7093,
      "faith</w>": 7094,
      "ave</w>": 7095,
      "Func": 7096,
      "disciplines</w>": 7097,
      "visible</w>": 7098,
      "traction</w>": 7099,
      "ratio</w>": 7100,
      "facts</w>": 7101,
      "featuring</w>": 7102,
      "memories</w>": 7103,
      "worked</w>": 7104,
      "combinations</w>": 7105,
      "usual</w>": 7106,
      "sion": 7107,
      "adequate</w>": 7108,
      "Lim": 7109,
      "paths</w>": 7110,
      "big": 7111,
      "War</w>": 7112,
      "classes</w>": 7113,
      "moist": 7114,
      "ene</w>": 7115,
      "selling</w>": 7116,
      "tainty</w>": 7117,
      "dots</w>": 7118,
      "documents</w>": 7119,
      "ang</w>": 7120,
      "weakn": 7121,
      "rows</w>": 7122,
      "Apply</w>": 7123,
      "2017</w>": 7124,
      "developers</w>": 7125,
      "ser</w>": 7126,
      "anding</w>": 7127,
      "Direc": 7128,
      "velocity</w>": 7129,
      "relation</w>": 7130,
      "Upon</w>": 7131,
      "hos": 7132,
      "ementary</w>": 7133,
      "entities</w>": 7134,
      "experts</w>": 7135,
      "inder</w>": 7136,
      "delicious</w>": 7137,
      "10": 7138,
      "aligned</w>": 7139,
      "detailed</w>": 7140,
      "Contin": 7141,
      "hu": 7142,
      "policy": 7143,
      "interpretation</w>": 7144,
      "participate</w>": 7145,
      "traits</w>": 7146,
      "deral</w>": 7147,
      "discourse</w>": 7148,
      "libr": 7149,
      "prep": 7150,
      "consists</w>": 7151,
      "lic": 7152,
      "bacter": 7153,
      "complexities</w>": 7154,
      "da</w>": 7155,
      "interact</w>": 7156,
      "manif": 7157,
      "road</w>": 7158,
      "shaped</w>": 7159,
      "adapt</w>": 7160,
      "contains</w>": 7161,
      "},</w>": 7162,
      "Health</w>": 7163,
      "bra</w>": 7164,
      ")/</w>": 7165,
      "yst": 7166,
      "Ger": 7167,
      "iled</w>": 7168,
      ")$,</w>": 7169,
      "izes</w>": 7170,
      "constan": 7171,
      "sud": 7172,
      "neu": 7173,
      "organized</w>": 7174,
      "structural</w>": 7175,
      "programming</w>": 7176,
      "Can</w>": 7177,
      "Def": 7178,
      "placed</w>": 7179,
      "aven": 7180,
      "himself</w>": 7181,
      "{{</w>": 7182,
      "foreign</w>": 7183,
      "ana</w>": 7184,
      "closed</w>": 7185,
      "atmosphere</w>": 7186,
      "comparing</w>": 7187,
      "Definition</w>": 7188,
      "Follow</w>": 7189,
      "afford": 7190,
      "Comprehen": 7191,
      "algebraic</w>": 7192,
      "fixed</w>": 7193,
      "gather</w>": 7194,
      "delicate</w>": 7195,
      "inclusive</w>": 7196,
      "bits</w>": 7197,
      "remove</w>": 7198,
      "'(</w>": 7199,
      "Meas": 7200,
      "muscle</w>": 7201,
      "All</w>": 7202,
      "^{-</w>": 7203,
      "disciplinary</w>": 7204,
      "Stud": 7205,
      "managed</w>": 7206,
      "identities</w>": 7207,
      "Fig": 7208,
      "Micro": 7209,
      "sought</w>": 7210,
      "strict</w>": 7211,
      "statements</w>": 7212,
      "perhaps</w>": 7213,
      "Personal</w>": 7214,
      "vertical</w>": 7215,
      "Christian</w>": 7216,
      "Hel": 7217,
      "European</w>": 7218,
      "aff</w>": 7219,
      "Hy": 7220,
      "Prot": 7221,
      "medic": 7222,
      "revenue</w>": 7223,
      "Val": 7224,
      "observations</w>": 7225,
      "Future</w>": 7226,
      "cut</w>": 7227,
      "received</w>": 7228,
      "defining</w>": 7229,
      "Contro": 7230,
      "newly</w>": 7231,
      "week</w>": 7232,
      "hydr": 7233,
      "cohe": 7234,
      "cards</w>": 7235,
      "contain": 7236,
      "Histor": 7237,
      "expenses</w>": 7238,
      "assets</w>": 7239,
      "occa": 7240,
      "Suppose</w>": 7241,
      "debate</w>": 7242,
      "Utilize</w>": 7243,
      "precision</w>": 7244,
      "dividing</w>": 7245,
      "fini": 7246,
      "Among</w>": 7247,
      "avoiding</w>": 7248,
      "Techniques</w>": 7249,
      "absolute</w>": 7250,
      "spi": 7251,
      "Guid": 7252,
      "197": 7253,
      "lens</w>": 7254,
      "delivery</w>": 7255,
      "Altern": 7256,
      "metal</w>": 7257,
      "multiplication</w>": 7258,
      "edges</w>": 7259,
      "computing</w>": 7260,
      "thanks</w>": 7261,
      "Lin": 7262,
      "\\)</w>": 7263,
      "adds</w>": 7264,
      "Publi": 7265,
      "unnecessary</w>": 7266,
      "objective</w>": 7267,
      "China</w>": 7268,
      "phr": 7269,
      "judg": 7270,
      "overy</w>": 7271,
      "recommendations</w>": 7272,
      "placing</w>": 7273,
      "forcing</w>": 7274,
      "handle</w>": 7275,
      "Initi": 7276,
      "cha": 7277,
      "genetic</w>": 7278,
      "compatibility</w>": 7279,
      "responsibilities</w>": 7280,
      "iny</w>": 7281,
      "temporary</w>": 7282,
      "facilitating</w>": 7283,
      "presentation</w>": 7284,
      "existence</w>": 7285,
      "alignment</w>": 7286,
      "inging</w>": 7287,
      "foli": 7288,
      "parent</w>": 7289,
      "ilibri": 7290,
      "itions</w>": 7291,
      "expanding</w>": 7292,
      "eath</w>": 7293,
      "atitude</w>": 7294,
      "\\,</w>": 7295,
      "myself</w>": 7296,
      "session</w>": 7297,
      "Check</w>": 7298,
      "everth": 7299,
      "evertheless</w>": 7300,
      "electro": 7301,
      "suggest</w>": 7302,
      "ank</w>": 7303,
      "hob": 7304,
      "staff</w>": 7305,
      "cycle</w>": 7306,
      "cities</w>": 7307,
      "proposed</w>": 7308,
      "bal</w>": 7309,
      "40</w>": 7310,
      "adjustments</w>": 7311,
      "opping</w>": 7312,
      "}^</w>": 7313,
      "correctly</w>": 7314,
      "owned</w>": 7315,
      "forth</w>": 7316,
      "intu": 7317,
      "purchasing</w>": 7318,
      "edly</w>": 7319,
      "motivation</w>": 7320,
      "quick</w>": 7321,
      "lining</w>": 7322,
      "moves</w>": 7323,
      "workers</w>": 7324,
      "languages</w>": 7325,
      "Regular</w>": 7326,
      "7u": 7327,
      "quantities</w>": 7328,
      "--------------------": 7329,
      "wind</w>": 7330,
      "aled</w>": 7331,
      "itude</w>": 7332,
      "cultivate</w>": 7333,
      "influences</w>": 7334,
      "bond</w>": 7335,
      "Importance</w>": 7336,
      "agreements</w>": 7337,
      "tains</w>": 7338,
      "0s</w>": 7339,
      "illum": 7340,
      "kind": 7341,
      "texts</w>": 7342,
      "believe</w>": 7343,
      "hur": 7344,
      "Sammy</w>": 7345,
      "uck</w>": 7346,
      "partnerships</w>": 7347,
      "healing</w>": 7348,
      "accessibility</w>": 7349,
      "identified</w>": 7350,
      "generating</w>": 7351,
      "partners</w>": 7352,
      "Comprehensive</w>": 7353,
      "susp": 7354,
      "certi": 7355,
      "immediate</w>": 7356,
      "treatments</w>": 7357,
      "arguments</w>": 7358,
      "Beg": 7359,
      "conduct</w>": 7360,
      "compassion</w>": 7361,
      "fortun": 7362,
      "iling</w>": 7363,
      "compliance</w>": 7364,
      "humans</w>": 7365,
      "intended</w>": 7366,
      "Mari": 7367,
      "da": 7368,
      "transfer</w>": 7369,
      "knows</w>": 7370,
      "holding</w>": 7371,
      "completely</w>": 7372,
      "tactics</w>": 7373,
      "la</w>": 7374,
      "interventions</w>": 7375,
      "prepare</w>": 7376,
      "intriguing</w>": 7377,
      "Sometimes</w>": 7378,
      "Kn": 7379,
      "sivity</w>": 7380,
      "strive</w>": 7381,
      "firms</w>": 7382,
      "alpha</w>": 7383,
      "tainment</w>": 7384,
      "Nevertheless</w>": 7385,
      "Prep": 7386,
      "Intern": 7387,
      "occup": 7388,
      "2016</w>": 7389,
      "taste</w>": 7390,
      "Convers": 7391,
      "ample</w>": 7392,
      "nership</w>": 7393,
      "showing</w>": 7394,
      "ficial</w>": 7395,
      "spot</w>": 7396,
      "roll</w>": 7397,
      "Creating</w>": 7398,
      "beneath</w>": 7399,
      "done</w>": 7400,
      "Multi": 7401,
      "film</w>": 7402,
      "recently</w>": 7403,
      "Can": 7404,
      "pricing</w>": 7405,
      "block</w>": 7406,
      "ilitary</w>": 7407,
      "incredible</w>": 7408,
      "contrac": 7409,
      "availability</w>": 7410,
      "((</w>": 7411,
      "prop": 7412,
      "display</w>": 7413,
      "tful</w>": 7414,
      "fraction</w>": 7415,
      "gir": 7416,
      "Lo": 7417,
      "assessment</w>": 7418,
      "traffic</w>": 7419,
      "driven</w>": 7420,
      "famous</w>": 7421,
      "regulation</w>": 7422,
      "safe": 7423,
      "outs</w>": 7424,
      "eth</w>": 7425,
      "National</w>": 7426,
      "preventing</w>": 7427,
      ".”</w>": 7428,
      "arrangements</w>": 7429,
      "clar": 7430,
      "participating</w>": 7431,
      "aceutical</w>": 7432,
      "accountability</w>": 7433,
      "mark</w>": 7434,
      "metrics</w>": 7435,
      "narrative</w>": 7436,
      "surprise</w>": 7437,
      "Pur": 7438,
      "cas": 7439,
      "AT": 7440,
      "gaps</w>": 7441,
      "Prepare</w>": 7442,
      "sou": 7443,
      "member</w>": 7444,
      "producing</w>": 7445,
      "ground": 7446,
      "depends</w>": 7447,
      "assionate</w>": 7448,
      "wood</w>": 7449,
      "storytelling</w>": 7450,
      "addres": 7451,
      ")$.</w>": 7452,
      "Not": 7453,
      "dimensional</w>": 7454,
      "map</w>": 7455,
      "plane</w>": 7456,
      "opt</w>": 7457,
      "2019</w>": 7458,
      "applicable</w>": 7459,
      "seems</w>": 7460,
      "generally</w>": 7461,
      "strengthen</w>": 7462,
      "mir": 7463,
      "$:</w>": 7464,
      "spending</w>": 7465,
      "Experiment</w>": 7466,
      "fare</w>": 7467,
      "cov": 7468,
      "focuses</w>": 7469,
      "Up</w>": 7470,
      "happy</w>": 7471,
      "combination</w>": 7472,
      "volun": 7473,
      "ett": 7474,
      "tened</w>": 7475,
      "drawn</w>": 7476,
      "quantity</w>": 7477,
      "peers</w>": 7478,
      "temperatures</w>": 7479,
      "compare</w>": 7480,
      "ampl": 7481,
      "shment</w>": 7482,
      "termin": 7483,
      "cryp": 7484,
      "shou": 7485,
      "bols</w>": 7486,
      "freedom</w>": 7487,
      "ographic</w>": 7488,
      "access": 7489,
      "unning</w>": 7490,
      "sunny</w>": 7491,
      "profile</w>": 7492,
      "implies</w>": 7493,
      "Sam</w>": 7494,
      "fli": 7495,
      "AAAAAAAA": 7496,
      "opinions</w>": 7497,
      "meals</w>": 7498,
      "19</w>": 7499,
      "denoted</w>": 7500,
      "Tre": 7501,
      "funds</w>": 7502,
      "Business</w>": 7503,
      "sev": 7504,
      "swit": 7505,
      "ucid": 7506,
      "}$,</w>": 7507,
      "theories</w>": 7508,
      "Custom": 7509,
      "vely</w>": 7510,
      "extended</w>": 7511,
      "anded</w>": 7512,
      "ardi": 7513,
      "vary</w>": 7514,
      "although</w>": 7515,
      "touch</w>": 7516,
      "targeted</w>": 7517,
      "expansion</w>": 7518,
      "visions</w>": 7519,
      "width</w>": 7520,
      "key": 7521,
      "extra": 7522,
      "prominent</w>": 7523,
      "enthusiasts</w>": 7524,
      "economy</w>": 7525,
      "leaves</w>": 7526,
      "Ret": 7527,
      "13</w>": 7528,
      "ert</w>": 7529,
      "Or</w>": 7530,
      "equivalent</w>": 7531,
      "measurements</w>": 7532,
      "card</w>": 7533,
      "hop": 7534,
      "Impact</w>": 7535,
      "Inst": 7536,
      "decide</w>": 7537,
      "accounting</w>": 7538,
      "uctu": 7539,
      "protecting</w>": 7540,
      "ucc": 7541,
      "rices</w>": 7542,
      "coverage</w>": 7543,
      "Net": 7544,
      "dilig": 7545,
      "anth": 7546,
      "lingu": 7547,
      "mobile</w>": 7548,
      "lesson</w>": 7549,
      "Consul": 7550,
      "ly": 7551,
      "credibility</w>": 7552,
      "clinical</w>": 7553,
      "tracking</w>": 7554,
      "English</w>": 7555,
      "nit": 7556,
      "pivotal</w>": 7557,
      "transition</w>": 7558,
      "societies</w>": 7559,
      "encountered</w>": 7560,
      "contrast</w>": 7561,
      "tories</w>": 7562,
      "optimize</w>": 7563,
      "Mathemati": 7564,
      "brain</w>": 7565,
      ".)</w>": 7566,
      "paramount</w>": 7567,
      "subtle</w>": 7568,
      "preparation</w>": 7569,
      "Determine</w>": 7570,
      "ressive</w>": 7571,
      "migration</w>": 7572,
      "signals</w>": 7573,
      "Red": 7574,
      "spiritual</w>": 7575,
      "shop</w>": 7576,
      "elucid": 7577,
      "count</w>": 7578,
      "Doc": 7579,
      "treas": 7580,
      "atch</w>": 7581,
      "eeding</w>": 7582,
      "uncertainty</w>": 7583,
      "equilibri": 7584,
      "marked</w>": 7585,
      "lau": 7586,
      "optimization</w>": 7587,
      "outcome</w>": 7588,
      "personality</w>": 7589,
      "division</w>": 7590,
      "hot</w>": 7591,
      "viewing</w>": 7592,
      "stop</w>": 7593,
      "Diffe": 7594,
      "pushing</w>": 7595,
      "symbol": 7596,
      "Respon": 7597,
      "Chin": 7598,
      "composition</w>": 7599,
      "Grou": 7600,
      "delivering</w>": 7601,
      "struggle</w>": 7602,
      "protoc": 7603,
      "entirely</w>": 7604,
      "respond</w>": 7605,
      "fruits</w>": 7606,
      "pread</w>": 7607,
      "clothing</w>": 7608,
      "recall</w>": 7609,
      "dog</w>": 7610,
      "14</w>": 7611,
      "classic</w>": 7612,
      "achievements</w>": 7613,
      "Indi": 7614,
      "completing</w>": 7615,
      "multiplying</w>": 7616,
      "measuring</w>": 7617,
      "Education</w>": 7618,
      "brush</w>": 7619,
      "Musi": 7620,
      "agues</w>": 7621,
      "scene</w>": 7622,
      "onomy</w>": 7623,
      "rin": 7624,
      "adventures</w>": 7625,
      "arms</w>": 7626,
      "ne</w>": 7627,
      "raised</w>": 7628,
      "Are</w>": 7629,
      "Seek</w>": 7630,
      "minimal</w>": 7631,
      "Role</w>": 7632,
      "forget</w>": 7633,
      "hes": 7634,
      "weaknesses</w>": 7635,
      "ood": 7636,
      "passed</w>": 7637,
      "racing</w>": 7638,
      "Implem": 7639,
      "equally</w>": 7640,
      "moment": 7641,
      "Indeed</w>": 7642,
      "button</w>": 7643,
      "inten": 7644,
      "div": 7645,
      "entry</w>": 7646,
      "showc": 7647,
      "symbols</w>": 7648,
      "equity</w>": 7649,
      "whe": 7650,
      "popul": 7651,
      "cent</w>": 7652,
      "Saf": 7653,
      "ID</w>": 7654,
      "heritage</w>": 7655,
      "eful": 7656,
      "tained</w>": 7657,
      "fant": 7658,
      "domains</w>": 7659,
      "reasons</w>": 7660,
      ",'</w>": 7661,
      "answers</w>": 7662,
      "seamless</w>": 7663,
      "^{\\</w>": 7664,
      "Find</w>": 7665,
      "fluctu": 7666,
      "band</w>": 7667,
      "innovations</w>": 7668,
      "ol</w>": 7669,
      "reference</w>": 7670,
      "visibility</w>": 7671,
      "enthusias": 7672,
      "advances</w>": 7673,
      "lim</w>": 7674,
      "plot</w>": 7675,
      "trigg": 7676,
      "rolling</w>": 7677,
      "Tri": 7678,
      "injury</w>": 7679,
      "backgrounds</w>": 7680,
      "suggested</w>": 7681,
      "estic</w>": 7682,
      "musical</w>": 7683,
      "Spe": 7684,
      "shar": 7685,
      "hion</w>": 7686,
      "Hum": 7687,
      "apples</w>": 7688,
      "horizontal</w>": 7689,
      "shad": 7690,
      "sters</w>": 7691,
      "Figure</w>": 7692,
      "highlight</w>": 7693,
      "mathematicians</w>": 7694,
      "Sally</w>": 7695,
      "margin": 7696,
      "Proper": 7697,
      "relevance</w>": 7698,
      "rhy": 7699,
      "neighbor": 7700,
      "nessing</w>": 7701,
      "parameters</w>": 7702,
      "lets</w>": 7703,
      "modeling</w>": 7704,
      "indicate</w>": 7705,
      "pal": 7706,
      "Gu": 7707,
      "reveals</w>": 7708,
      "Calcul": 7709,
      "cil</w>": 7710,
      "Great</w>": 7711,
      "thering</w>": 7712,
      "attempting</w>": 7713,
      "____": 7714,
      "spl": 7715,
      "fit": 7716,
      "idents</w>": 7717,
      "monitor</w>": 7718,
      "etings</w>": 7719,
      "itical</w>": 7720,
      "International</w>": 7721,
      "revealing</w>": 7722,
      "tum</w>": 7723,
      "fractions</w>": 7724,
      "gence</w>": 7725,
      "arian</w>": 7726,
      "computational</w>": 7727,
      "18</w>": 7728,
      "stable</w>": 7729,
      "indicates</w>": 7730,
      "Ed": 7731,
      "extraordinary</w>": 7732,
      "ln</w>": 7733,
      "Lily</w>": 7734,
      "exact</w>": 7735,
      "grade</w>": 7736,
      "pre</w>": 7737,
      "describe</w>": 7738,
      "allel</w>": 7739,
      "wer</w>": 7740,
      "dary</w>": 7741,
      "vig": 7742,
      "habit": 7743,
      "analytical</w>": 7744,
      "statistics</w>": 7745,
      "signal</w>": 7746,
      "workshops</w>": 7747,
      "official</w>": 7748,
      "array</w>": 7749,
      "emerge</w>": 7750,
      "beloved</w>": 7751,
      "Ide": 7752,
      "men</w>": 7753,
      "transform</w>": 7754,
      "perfec": 7755,
      "frag": 7756,
      "constitu": 7757,
      "Chinese</w>": 7758,
      "Engage</w>": 7759,
      "istry</w>": 7760,
      "preferred</w>": 7761,
      "vement</w>": 7762,
      "dt</w>": 7763,
      "ament</w>": 7764,
      "discrimination</w>": 7765,
      "grasp</w>": 7766,
      "Prior": 7767,
      "mac": 7768,
      "etheless</w>": 7769,
      "trees</w>": 7770,
      "proceed</w>": 7771,
      "enrich": 7772,
      "disparities</w>": 7773,
      "wave</w>": 7774,
      "ady</w>": 7775,
      "returns</w>": 7776,
      "leveraging</w>": 7777,
      "relying</w>": 7778,
      "recovery</w>": 7779,
      "Sal": 7780,
      "Econ": 7781,
      "diagnos": 7782,
      "relaxation</w>": 7783,
      "etry</w>": 7784,
      "gran": 7785,
      "doub": 7786,
      "covering</w>": 7787,
      "reflects</w>": 7788,
      "attending</w>": 7789,
      "24</w>": 7790,
      "empl": 7791,
      "utive</w>": 7792,
      "kin": 7793,
      "expressing</w>": 7794,
      "stream</w>": 7795,
      "|\\</w>": 7796,
      "Succ": 7797,
      "definitions</w>": 7798,
      "Cam": 7799,
      "Je": 7800,
      "ax</w>": 7801,
      "denominator</w>": 7802,
      "calculated</w>": 7803,
      "issions</w>": 7804,
      "reser": 7805,
      "finance</w>": 7806,
      "confidently</w>": 7807,
      "/(</w>": 7808,
      "biases</w>": 7809,
      "efficients</w>": 7810,
      "exceptional</w>": 7811,
      "eous</w>": 7812,
      "liber": 7813,
      "Based</w>": 7814,
      "vill": 7815,
      "rewards</w>": 7816,
      "feels</w>": 7817,
      "adver": 7818,
      "constructive</w>": 7819,
      "Mov": 7820,
      "policymakers</w>": 7821,
      "compute</w>": 7822,
      "Of</w>": 7823,
      "Isl": 7824,
      "accum": 7825,
      "violence</w>": 7826,
      "quar": 7827,
      "transformed</w>": 7828,
      "collaborative</w>": 7829,
      "slowly</w>": 7830,
      "taught</w>": 7831,
      "governance</w>": 7832,
      "molecular</w>": 7833,
      "fies</w>": 7834,
      "thetic</w>": 7835,
      "peace</w>": 7836,
      "Comb": 7837,
      "performances</w>": 7838,
      "guess</w>": 7839,
      "fluid</w>": 7840,
      "erings</w>": 7841,
      "transc": 7842,
      "vac": 7843,
      "ifications</w>": 7844,
      "matrices</w>": 7845,
      "AP": 7846,
      "constitutes</w>": 7847,
      "Art</w>": 7848,
      "diseases</w>": 7849,
      "aspiring</w>": 7850,
      "thered</w>": 7851,
      "List": 7852,
      "sely</w>": 7853,
      "adopting</w>": 7854,
      "candidates</w>": 7855,
      "balls</w>": 7856,
      "flavors</w>": 7857,
      "Particip": 7858,
      "batter": 7859,
      "Physi": 7860,
      "military</w>": 7861,
      "AR": 7862,
      "upper</w>": 7863,
      "density</w>": 7864,
      "interested</w>": 7865,
      "severe</w>": 7866,
      "recur": 7867,
      "7u7u": 7868,
      "Produc": 7869,
      "fea": 7870,
      "Rus": 7871,
      "great": 7872,
      "secret</w>": 7873,
      "icking</w>": 7874,
      "thous": 7875,
      "buy</w>": 7876,
      "watching</w>": 7877,
      "neutr": 7878,
      "Pa": 7879,
      "scrut": 7880,
      "collec": 7881,
      "Open</w>": 7882,
      "investors</w>": 7883,
      "equilibrium</w>": 7884,
      "suit</w>": 7885,
      "accompli": 7886,
      "minimum</w>": 7887,
      "simplify</w>": 7888,
      "dear</w>": 7889,
      "faceted</w>": 7890,
      "videos</w>": 7891,
      "organic</w>": 7892,
      "rooms</w>": 7893,
      "identical</w>": 7894,
      "discoveries</w>": 7895,
      "partner</w>": 7896,
      "ebook</w>": 7897,
      "ural</w>": 7898,
      "flows</w>": 7899,
      "divided</w>": 7900,
      "*}</w>": 7901,
      "Vari": 7902,
      "Mz": 7903,
      "hear": 7904,
      "herself</w>": 7905,
      "pes</w>": 7906,
      "sibly</w>": 7907,
      "itly</w>": 7908,
      "profit</w>": 7909,
      "distances</w>": 7910,
      "integers</w>": 7911,
      "protein</w>": 7912,
      "lifestyle</w>": 7913,
      "stered</w>": 7914,
      "zy</w>": 7915,
      "Connec": 7916,
      "watch</w>": 7917,
      "Ri": 7918,
      "espread</w>": 7919,
      "glance</w>": 7920,
      "moral</w>": 7921,
      "Polic": 7922,
      "transitions</w>": 7923,
      "Bec": 7924,
      "fans</w>": 7925,
      "authentic</w>": 7926,
      "compet": 7927,
      "Lit": 7928,
      "Place</w>": 7929,
      "mixed</w>": 7930,
      "wealth</w>": 7931,
      "tells</w>": 7932,
      "Law</w>": 7933,
      "boxes</w>": 7934,
      "Familiarize</w>": 7935,
      "produced</w>": 7936,
      "Ter": 7937,
      "empowerment</w>": 7938,
      "bound</w>": 7939,
      "More</w>": 7940,
      "shments</w>": 7941,
      "ownership</w>": 7942,
      "reviews</w>": 7943,
      "genous</w>": 7944,
      "lots</w>": 7945,
      "phenomenon</w>": 7946,
      "medicine</w>": 7947,
      "proteins</w>": 7948,
      "latest</w>": 7949,
      "17": 7950,
      "happiness</w>": 7951,
      "uth</w>": 7952,
      "lic</w>": 7953,
      "ustom</w>": 7954,
      "African</w>": 7955,
      "expert</w>": 7956,
      "omor": 7957,
      "tit": 7958,
      "reputation</w>": 7959,
      "cancer</w>": 7960,
      "harmony</w>": 7961,
      "committed</w>": 7962,
      "uncover</w>": 7963,
      "System</w>": 7964,
      "corporate</w>": 7965,
      "igen": 7966,
      "supports</w>": 7967,
      "tedly</w>": 7968,
      "recommended</w>": 7969,
      "perfectly</w>": 7970,
      "rest": 7971,
      "texture</w>": 7972,
      "saying</w>": 7973,
      "bers</w>": 7974,
      "payment</w>": 7975,
      "nothing</w>": 7976,
      "report</w>": 7977,
      "claim</w>": 7978,
      "widespread</w>": 7979,
      "etion</w>": 7980,
      "vehicle</w>": 7981,
      "dish</w>": 7982,
      "surg": 7983,
      "elf</w>": 7984,
      "representations</w>": 7985,
      "publ": 7986,
      "${</w>": 7987,
      "coff": 7988,
      "captivating</w>": 7989,
      "theorem</w>": 7990,
      "dic</w>": 7991,
      "harmful</w>": 7992,
      "ony</w>": 7993,
      "articles</w>": 7994,
      "claims</w>": 7995,
      "metic</w>": 7996,
      "Marketing</w>": 7997,
      "confident</w>": 7998,
      "Allow</w>": 7999,
      "ern": 8000,
      "University</w>": 8001,
      "tab": 8002,
      "coefficients</w>": 8003,
      "agencies</w>": 8004,
      "summar": 8005,
      "missing</w>": 8006,
      "co</w>": 8007,
      "push</w>": 8008,
      "equitable</w>": 8009,
      "jective</w>": 8010,
      "Struc": 8011,
      "supportive</w>": 8012,
      "investments</w>": 8013,
      "don": 8014,
      "multi</w>": 8015,
      "cooperation</w>": 8016,
      "poor</w>": 8017,
      "Exploring</w>": 8018,
      "grat": 8019,
      "cook": 8020,
      "versus</w>": 8021,
      "nod": 8022,
      "noise</w>": 8023,
      "Review</w>": 8024,
      "gentle</w>": 8025,
      "spirit</w>": 8026,
      "oti": 8027,
      "sugar</w>": 8028,
      "category</w>": 8029,
      "poly": 8030,
      "cultivating</w>": 8031,
      "opol": 8032,
      "mit": 8033,
      "alist</w>": 8034,
      "ulating</w>": 8035,
      "dram": 8036,
      "talent</w>": 8037,
      "impressive</w>": 8038,
      "embar": 8039,
      "Guide</w>": 8040,
      ".*</w>": 8041,
      "described</w>": 8042,
      "gratitude</w>": 8043,
      "memorable</w>": 8044,
      "Bet": 8045,
      "Fr": 8046,
      "mort": 8047,
      "enty</w>": 8048,
      "Experi": 8049,
      "John": 8050,
      "preparing</w>": 8051,
      "Ref": 8052,
      "reaction</w>": 8053,
      "reputable</w>": 8054,
      "territ": 8055,
      "Progr": 8056,
      "aware</w>": 8057,
      "ss": 8058,
      "ni": 8059,
      "bag</w>": 8060,
      "preserve</w>": 8061,
      "tudes</w>": 8062,
      "naturally</w>": 8063,
      "slow</w>": 8064,
      "struggles</w>": 8065,
      "observing</w>": 8066,
      "subjects</w>": 8067,
      "Public</w>": 8068,
      "Dist": 8069,
      "Jour": 8070,
      "system": 8071,
      "ull</w>": 8072,
      "convey</w>": 8073,
      "apps</w>": 8074,
      "middle</w>": 8075,
      "tile</w>": 8076,
      "Mod": 8077,
      "Nonetheless</w>": 8078,
      "appealing</w>": 8079,
      "asser": 8080,
      "tel": 8081,
      "parallel</w>": 8082,
      "rh": 8083,
      "City</w>": 8084,
      "spots</w>": 8085,
      "cash</w>": 8086,
      "crimin": 8087,
      "parall": 8088,
      "sky</w>": 8089,
      "voices</w>": 8090,
      "selected</w>": 8091,
      "Foll": 8092,
      "neys</w>": 8093,
      "gold</w>": 8094,
      "cream</w>": 8095,
      "legis": 8096,
      "quir": 8097,
      "park</w>": 8098,
      "sin": 8099,
      "class": 8100,
      "soil</w>": 8101,
      "round</w>": 8102,
      "fuel</w>": 8103,
      "properly</w>": 8104,
      "respectively</w>": 8105,
      "South</w>": 8106,
      "dang": 8107,
      "text": 8108,
      "Moder": 8109,
      "ynam": 8110,
      "circles</w>": 8111,
      "visually</w>": 8112,
      "shown</w>": 8113,
      "Pay</w>": 8114,
      "Back": 8115,
      "2015</w>": 8116,
      "Conversely</w>": 8117,
      "rhyth": 8118,
      "trad": 8119,
      "apped</w>": 8120,
      "</</w>": 8121,
      "tone</w>": 8122,
      "cars</w>": 8123,
      "izations</w>": 8124,
      "industri": 8125,
      "quadratic</w>": 8126,
      "Yet</w>": 8127,
      "underp": 8128,
      "molecules</w>": 8129,
      "carry</w>": 8130,
      "obs</w>": 8131,
      "ley</w>": 8132,
      "season</w>": 8133,
      "multiply</w>": 8134,
      "Act</w>": 8135,
      "straight": 8136,
      "protocols</w>": 8137,
      "eter</w>": 8138,
      "mechanics</w>": 8139,
      "realistic</w>": 8140,
      "yth": 8141,
      "reporting</w>": 8142,
      "Applications</w>": 8143,
      "bies</w>": 8144,
      "twice</w>": 8145,
      "funding</w>": 8146,
      "document</w>": 8147,
      "glass</w>": 8148,
      "checking</w>": 8149,
      "actors</w>": 8150,
      "purchase</w>": 8151,
      "ram</w>": 8152,
      "US": 8153,
      "Sched": 8154,
      "execution</w>": 8155,
      "(\"</w>": 8156,
      "transactions</w>": 8157,
      "neuro": 8158,
      "format</w>": 8159,
      "US</w>": 8160,
      "batt": 8161,
      "confron": 8162,
      "experiment</w>": 8163,
      "principle</w>": 8164,
      "classical</w>": 8165,
      "record</w>": 8166,
      "Sum": 8167,
      "indicating</w>": 8168,
      "stars</w>": 8169,
      "Mag": 8170,
      "offerings</w>": 8171,
      "prefer</w>": 8172,
      "abstract</w>": 8173,
      "concern</w>": 8174,
      "tance</w>": 8175,
      "everyday</w>": 8176,
      "loyalty</w>": 8177,
      "audio</w>": 8178,
      "electronic</w>": 8179,
      "vel</w>": 8180,
      "coordinate</w>": 8181,
      "proof</w>": 8182,
      "196": 8183,
      "fees</w>": 8184,
      "refer": 8185,
      "understood</w>": 8186,
      "multifaceted</w>": 8187,
      "Like</w>": 8188,
      "sight</w>": 8189,
      "pursuing</w>": 8190,
      "comparis": 8191,
      "West": 8192,
      "*(</w>": 8193,
      "finite</w>": 8194,
      "war</w>": 8195,
      "](</w>": 8196,
      "fill</w>": 8197,
      "decades</w>": 8198,
      "gradu": 8199,
      "print</w>": 8200,
      "mix</w>": 8201,
      "MzMz": 8202,
      "spon": 8203,
      "teacher</w>": 8204,
      "explanations</w>": 8205,
      "alling</w>": 8206,
      "Por": 8207,
      "floor</w>": 8208,
      "inclusivity</w>": 8209,
      "estion</w>": 8210,
      "academ": 8211,
      "Mia</w>": 8212,
      "Theore": 8213,
      "itely</w>": 8214,
      "fire</w>": 8215,
      "geometric</w>": 8216,
      "ints</w>": 8217,
      "reached</w>": 8218,
      "straightforward</w>": 8219,
      "treat</w>": 8220,
      "entails</w>": 8221,
      "remained</w>": 8222,
      "Having</w>": 8223,
      "observation</w>": 8224,
      "authority</w>": 8225,
      "older</w>": 8226,
      "$-</w>": 8227,
      "conversion</w>": 8228,
      "Dra": 8229,
      "perceived</w>": 8230,
      "discre": 8231,
      "foods</w>": 8232,
      "meditation</w>": 8233,
      "gaming</w>": 8234,
      "Rom": 8235,
      "hering</w>": 8236,
      "py</w>": 8237,
      "*,</w>": 8238,
      "excess</w>": 8239,
      "governments</w>": 8240,
      "creatures</w>": 8241,
      "lip": 8242,
      "facilities</w>": 8243,
      "ord</w>": 8244,
      "bab": 8245,
      "eleg": 8246,
      "Challenges</w>": 8247,
      "fewer</w>": 8248,
      "capit": 8249,
      "dark</w>": 8250,
      "antum</w>": 8251,
      "rooted</w>": 8252,
      "ouri": 8253,
      "promptly</w>": 8254,
      "mitigate</w>": 8255,
      "agricul": 8256,
      "trig": 8257,
      "passing</w>": 8258,
      "Historical</w>": 8259,
      "introducing</w>": 8260,
      "combine</w>": 8261,
      "essence</w>": 8262,
      "bitr": 8263,
      "coffee</w>": 8264,
      "happen</w>": 8265,
      "Environ": 8266,
      "host</w>": 8267,
      "controversi": 8268,
      "smoothly</w>": 8269,
      "dishes</w>": 8270,
      "approached</w>": 8271,
      "unting</w>": 8272,
      "bank</w>": 8273,
      "haz": 8274,
      "distingu": 8275,
      "shares</w>": 8276,
      "enthusiasm</w>": 8277,
      "suggesting</w>": 8278,
      "Online</w>": 8279,
      "breaks</w>": 8280,
      "thrive</w>": 8281,
      "emphasize</w>": 8282,
      "internet</w>": 8283,
      "Following</w>": 8284,
      "item</w>": 8285,
      "extend</w>": 8286,
      "Bey": 8287,
      "clarity</w>": 8288,
      "vation</w>": 8289,
      "trip</w>": 8290,
      "machines</w>": 8291,
      "organizing</w>": 8292,
      "calls</w>": 8293,
      "Lever": 8294,
      "numerical</w>": 8295,
      "High": 8296,
      "expect</w>": 8297,
      "x2</w>": 8298,
      "acid</w>": 8299,
      "transformations</w>": 8300,
      "differently</w>": 8301,
      "algebra</w>": 8302,
      "muscles</w>": 8303,
      "tradition</w>": 8304,
      "tensions</w>": 8305,
      "solidi": 8306,
      "Rob": 8307,
      "tail</w>": 8308,
      "nurturing</w>": 8309,
      "rom": 8310,
      "Basi": 8311,
      "delves</w>": 8312,
      "suppose</w>": 8313,
      "artificial</w>": 8314,
      "pped</w>": 8315,
      "measurement</w>": 8316,
      "agreement</w>": 8317,
      "inspiring</w>": 8318,
      "walls</w>": 8319,
      "teachers</w>": 8320,
      "erarch": 8321,
      "conservation</w>": 8322,
      "experiencing</w>": 8323,
      "Opt</w>": 8324,
      "Mus": 8325,
      "rot": 8326,
      "na</w>": 8327,
      "therapeu": 8328,
      "agents</w>": 8329,
      "mistakes</w>": 8330,
      "reports</w>": 8331,
      "colleagues</w>": 8332,
      "competing</w>": 8333,
      "distr": 8334,
      "pharmaceutical</w>": 8335,
      "restrictions</w>": 8336,
      "lers</w>": 8337,
      "opposite</w>": 8338,
      "intervals</w>": 8339,
      "Europe</w>": 8340,
      "lands</w>": 8341,
      "Elec": 8342,
      "overview</w>": 8343,
      "VI</w>": 8344,
      "devi": 8345,
      "joining</w>": 8346,
      "Simpl": 8347,
      "momentum</w>": 8348,
      "icating</w>": 8349,
      "Monitor</w>": 8350,
      "minds</w>": 8351,
      "2014</w>": 8352,
      "Pot": 8353,
      "administr": 8354,
      "inverse</w>": 8355,
      "encounters</w>": 8356,
      "interpretations</w>": 8357,
      "targeting</w>": 8358,
      "medium</w>": 8359,
      "discipline</w>": 8360,
      "beneficial</w>": 8361,
      "surv": 8362,
      "Test</w>": 8363,
      "football</w>": 8364,
      "bridge</w>": 8365,
      "included</w>": 8366,
      "regim": 8367,
      "preced": 8368,
      "een</w>": 8369,
      "hit</w>": 8370,
      "90</w>": 8371,
      "enjoying</w>": 8372,
      "injuries</w>": 8373,
      "consult</w>": 8374,
      "Bra": 8375,
      "refining</w>": 8376,
      "idity</w>": 8377,
      "gathering</w>": 8378,
      "origin</w>": 8379,
      "market": 8380,
      "courses</w>": 8381,
      "Also</w>": 8382,
      "Self</w>": 8383,
      "Navigating</w>": 8384,
      "recep": 8385,
      "house": 8386,
      "racy</w>": 8387,
      "week": 8388,
      "volunte": 8389,
      "joint</w>": 8390,
      "logarith": 8391,
      "explicitly</w>": 8392,
      "stitute</w>": 8393,
      "moisture</w>": 8394,
      "centers</w>": 8395,
      "CB": 8396,
      "showcasing</w>": 8397,
      "Begin</w>": 8398,
      "intersection</w>": 8399,
      "ither</w>": 8400,
      "valid</w>": 8401,
      "Pi": 8402,
      "exempl": 8403,
      "authenticity</w>": 8404,
      "mot": 8405,
      "civil</w>": 8406,
      "wall</w>": 8407,
      "operational</w>": 8408,
      "Do": 8409,
      "necessitates</w>": 8410,
      "mation</w>": 8411,
      "Ag": 8412,
      "vis</w>": 8413,
      "univers": 8414,
      "\\{</w>": 8415,
      "housing</w>": 8416,
      "understand": 8417,
      "conducting</w>": 8418,
      "hesit": 8419,
      "hot": 8420,
      "Cultural</w>": 8421,
      "counterparts</w>": 8422,
      "proving</w>": 8423,
      "drop</w>": 8424,
      "replied</w>": 8425,
      "refine</w>": 8426,
      "arate</w>": 8427,
      "thoughtfully</w>": 8428,
      "enjoyable</w>": 8429,
      "inform</w>": 8430,
      "Grad": 8431,
      "pling</w>": 8432,
      "rif": 8433,
      "specified</w>": 8434,
      "estate</w>": 8435,
      "meets</w>": 8436,
      "rench</w>": 8437,
      "datasets</w>": 8438,
      "matches</w>": 8439,
      "Compar": 8440,
      "meant</w>": 8441,
      "dual</w>": 8442,
      "oxy": 8443,
      "entertainment</w>": 8444,
      "nation</w>": 8445,
      "overcome</w>": 8446,
      "cros": 8447,
      "invest</w>": 8448,
      "Dig": 8449,
      "Play": 8450,
      "rock</w>": 8451,
      "hyper": 8452,
      "kindness</w>": 8453,
      "foot</w>": 8454,
      "accessories</w>": 8455,
      "twist</w>": 8456,
      "estry</w>": 8457,
      "kle</w>": 8458,
      "erb": 8459,
      "residents</w>": 8460,
      "Beyond</w>": 8461,
      "Black</w>": 8462,
      "heigh": 8463,
      "acqui": 8464,
      "crete</w>": 8465,
      "3x</w>": 8466,
      "beginning</w>": 8467,
      "Little</w>": 8468,
      "cool": 8469,
      "psychological</w>": 8470,
      "arbitr": 8471,
      "keup</w>": 8472,
      "allocation</w>": 8473,
      "Plan</w>": 8474,
      "wonder</w>": 8475,
      "ports</w>": 8476,
      "Prob": 8477,
      "erious</w>": 8478,
      "dex</w>": 8479,
      "remote</w>": 8480,
      "flavor</w>": 8481,
      "stitution</w>": 8482,
      "speech</w>": 8483,
      "AN": 8484,
      "bar": 8485,
      "raising</w>": 8486,
      "spection</w>": 8487,
      "ouble</w>": 8488,
      "savings</w>": 8489,
      "invent": 8490,
      "ailing</w>": 8491,
      "agency</w>": 8492,
      "inci": 8493,
      "otic</w>": 8494,
      "duci": 8495,
      "menu</w>": 8496,
      "persistent</w>": 8497,
      "millions</w>": 8498,
      "reliability</w>": 8499,
      "tangible</w>": 8500,
      "vehicles</w>": 8501,
      "electrical</w>": 8502,
      "})": 8503,
      "anti</w>": 8504,
      "cues</w>": 8505,
      "home": 8506,
      "ashing</w>": 8507,
      "Eth": 8508,
      "coordinates</w>": 8509,
      "ographical</w>": 8510,
      "office</w>": 8511,
      "window</w>": 8512,
      "eses</w>": 8513,
      "brands</w>": 8514,
      "perpet": 8515,
      "law": 8516,
      "outlined</w>": 8517,
      "starts</w>": 8518,
      "*.</w>": 8519,
      "biology</w>": 8520,
      "esting</w>": 8521,
      "sour": 8522,
      "Consult</w>": 8523,
      "nings</w>": 8524,
      "shifting</w>": 8525,
      "^(</w>": 8526,
      "guiding</w>": 8527,
      "visitors</w>": 8528,
      "depic": 8529,
      "modifications</w>": 8530,
      "schedule</w>": 8531,
      "Dep": 8532,
      "assume</w>": 8533,
      "stunning</w>": 8534,
      "transforming</w>": 8535,
      "Within</w>": 8536,
      "logical</w>": 8537,
      "solid": 8538,
      "paid</w>": 8539,
      "stere": 8540,
      "adversity</w>": 8541,
      "fashion</w>": 8542,
      "eating</w>": 8543,
      "wondered</w>": 8544,
      "competitors</w>": 8545,
      "experimental</w>": 8546,
      "icit</w>": 8547,
      "frame</w>": 8548,
      "State</w>": 8549,
      "loans</w>": 8550,
      "tage</w>": 8551,
      "manual</w>": 8552,
      "Utilizing</w>": 8553,
      "flexible</w>": 8554,
      "visiting</w>": 8555,
      "spati": 8556,
      "cater</w>": 8557,
      "exponential</w>": 8558,
      "federal</w>": 8559,
      "Ms</w>": 8560,
      "------------------------------------": 8561,
      "eager</w>": 8562,
      "newfound</w>": 8563,
      "Embrace</w>": 8564,
      "cloud</w>": 8565,
      "died</w>": 8566,
      "humanity</w>": 8567,
      "uli": 8568,
      "disparate</w>": 8569,
      "ts": 8570,
      "emergency</w>": 8571,
      "People</w>": 8572,
      "artist</w>": 8573,
      "rising</w>": 8574,
      "oming</w>": 8575,
      "Addressing</w>": 8576,
      "annual</w>": 8577,
      "commonly</w>": 8578,
      "pick</w>": 8579,
      "milest": 8580,
      "Schedule</w>": 8581,
      "ague</w>": 8582,
      "ancies</w>": 8583,
      "receiving</w>": 8584,
      "Communication</w>": 8585,
      "secrets</w>": 8586,
      "grab</w>": 8587,
      "Provide</w>": 8588,
      "Ital": 8589,
      "client</w>": 8590,
      "disorders</w>": 8591,
      "DNA</w>": 8592,
      "trusted</w>": 8593,
      "Wind": 8594,
      "pass</w>": 8595,
      "forest</w>": 8596,
      "za</w>": 8597,
      "Wr": 8598,
      "seamlessly</w>": 8599,
      "rowing</w>": 8600,
      "Er": 8601,
      "million</w>": 8602,
      "oon</w>": 8603,
      "talking</w>": 8604,
      "aming</w>": 8605,
      "decimal</w>": 8606,
      "racial</w>": 8607,
      "`.</w>": 8608,
      "variety</w>": 8609,
      "gathered</w>": 8610,
      "marginalized</w>": 8611,
      "blend</w>": 8612,
      "ologists</w>": 8613,
      "letters</w>": 8614,
      "commercial</w>": 8615,
      "ray</w>": 8616,
      "convenience</w>": 8617,
      "obtained</w>": 8618,
      "proficiency</w>": 8619,
      "involvement</w>": 8620,
      "sensitivity</w>": 8621,
      "theme</w>": 8622,
      "aph": 8623,
      "solar</w>": 8624,
      "thousands</w>": 8625,
      "productive</w>": 8626,
      "otypes</w>": 8627,
      "Emily</w>": 8628,
      "---": 8629,
      "urg": 8630,
      "missions</w>": 8631,
      "sid": 8632,
      "widely</w>": 8633,
      "45</w>": 8634,
      "16": 8635,
      "cold</w>": 8636,
      "extreme</w>": 8637,
      "tative</w>": 8638,
      "fits</w>": 8639,
      "School</w>": 8640,
      "aesthetic</w>": 8641,
      "verbal</w>": 8642,
      "promises</w>": 8643,
      "ploy": 8644,
      "anch": 8645,
      "analytics</w>": 8646,
      "`,</w>": 8647,
      "represent": 8648,
      "appropriately</w>": 8649,
      "flat</w>": 8650,
      "refer</w>": 8651,
      "linguistic</w>": 8652,
      "architecture</w>": 8653,
      "adherence</w>": 8654,
      "linked</w>": 8655,
      "corresponds</w>": 8656,
      "2021</w>": 8657,
      "walking</w>": 8658,
      "datab": 8659,
      "radius</w>": 8660,
      "cycles</w>": 8661,
      "manipulation</w>": 8662,
      "essor</w>": 8663,
      "influential</w>": 8664,
      "percent": 8665,
      "criticism</w>": 8666,
      "Cra": 8667,
      "underscores</w>": 8668,
      "ub</w>": 8669,
      "directions</w>": 8670,
      "til": 8671,
      "therapeutic</w>": 8672,
      "aesthetics</w>": 8673,
      "ryp": 8674,
      "satisfying</w>": 8675,
[...]
